[PAD]
[UNK]
[CLS]
[SEP]
[MASK]
!
$
%
.
/
0
1
2
3
4
5
6
7
8
9
?
@
|
~
ᄀ
ᄁ
ᄂ
ᄃ
ᄄ
ᄅ
ᄆ
ᄇ
ᄈ
ᄉ
ᄊ
ᄋ
ᄌ
ᄍ
ᄎ
ᄏ
ᄐ
ᄑ
ᄒ
ᅡ
ᅢ
ᅣ
ᅤ
ᅥ
ᅦ
ᅧ
ᅨ
ᅩ
ᅪ
ᅫ
ᅬ
ᅭ
ᅮ
ᅯ
ᅰ
ᅱ
ᅲ
ᅳ
ᅴ
ᅵ
ᆨ
ᆩ
ᆪ
ᆫ
ᆬ
ᆭ
ᆮ
ᆯ
ᆰ
ᆱ
ᆲ
ᆳ
ᆴ
ᆵ
ᆶ
ᆷ
ᆸ
ᆹ
ᆺ
ᆻ
ᆼ
ᆽ
ᆾ
ᆿ
ᇀ
ᇁ
ᇂ
ㄱ
ㄲ
ㄳ
ㄴ
ㄵ
ㄶ
ㄷ
ㄸ
ㄹ
ㄺ
ㄻ
ㄼ
ㄽ
ㄾ
ㄿ
ㅀ
ㅁ
ㅂ
ㅃ
ㅄ
ㅅ
ㅆ
ㅇ
ㅈ
ㅉ
ㅊ
ㅋ
ㅌ
ㅍ
ㅎ
ㅏ
ㅐ
ㅑ
ㅒ
ㅓ
ㅔ
ㅕ
ㅖ
ㅗ
ㅘ
ㅙ
ㅚ
ㅛ
ㅜ
ㅝ
ㅞ
ㅟ
ㅠ
ㅡ
ㅢ
ㅣ
##ᅩ
##ᄀ
##ᅵ
##ᄉ
##ᅢ
##ᆼ
##ᄆ
##ᅧ
##ᄎ
##ᅦ
##ᄋ
##ᅴ
##ᅪ
##ᆯ
##ᅭ
##ᄒ
##ᅬ
##ᅥ
##ᅮ
##ᅡ
##ᄌ
##ᄐ
##ᄏ
##ᄅ
##ᆸ
##ᅲ
##ᄑ
##ᆫ
##ᅳ
##ᄇ
##ᆷ
##ᅨ
##ᅯ
##ᄊ
##2
##5
##ᆨ
##6
##0
##ᄃ
##ᄂ
##ᆻ
##ᄄ
##3
##ᅣ
##ᄈ
##ᆮ
##ᅱ
##ᆺ
##8
##1
##ᄁ
##4
##ᆰ
##9
##7
##ᆱ
##ᅫ
##ᅤ
##ᆽ
##ᅰ
##ᇂ
##ᆾ
##ᇁ
##ᆭ
##ᆹ
##ᆬ
##ᇀ
##ᄍ
##ᆲ
##ᆩ
##ᆿ
##ᆶ
##ㅇ
##ㅋ
##ㅏ
##ㅁ
##ㅊ
##ㅅ
##ㄲ
##ㄴ
##ㅜ
##ᆪ
##ㅐ
##ㅣ
##ㅠ
##ᆴ
##ㅡ
##ᆵ
##ㄱ
##ㅈ
##ㅍ
##ㅎ
##ㄷ
##ᆳ
##ㅞ
##ㅂ
##ㅌ
##ㅝ
##ㅉ
##ㅓ
##ㄹ
##ㅑ
##ㅗ
##ㅔ
##ㅕ
##ㅛ
##ㅘ
##ㅃ
##ㄸ
##ㅢ
##ㅟ
##ㅀ
##ㅆ
##ㄽ
##ㅄ
##ㅒ
##ㅙ
##ㅖ
##ㄺ
##ㅚ
##ㄳ
##ㄻ
##ㄼ
##ㄿ
##ㄶ
##ㄵ
##ㄾ
##이
##ᅡᆫ
##으
##다
##ᅳᆫ
이
##ᅡᆼ
##는
##에
##ᅥᆫ
##ᅳᆯ
##을
##고
##하
##ᅧᆫ
##로
##해
##지
##서
##ᅧᆼ
##의
##ᅩᆼ
##ᆻ다
##가
##ᅮᆫ
##시
##어
##ᅥᆼ
##은
##한
##를
##ᅡᆯ
##ᅯᆫ
##기
##ᅮᆨ
##도
##리
##ᅮᆯ
##자
##ᅳᆼ
##과
지
##스
시
##인
기
##사
##원
##라
대
##으로
##장
거
##저
가
##ᅩᆨ
주
##ᅧᆨ
##대
##부
##정
##화
사
수
아
##에서
##요
##일
##니
전
##ᅩᆫ
##들
##나
##아
##주
##했다
하
##제
##상
##게
##국
##ᅳᆷ
##ᅢᆼ
것
##회
바
##만
##되
##면
##ᅢᆨ
##ᅧᆯ
한
##업
##적
있
##성
##야
등
##보
어
##수
##와
##ᅥᆯ
##유
과
##ᅥᆷ
정
자
##ᅵᆫ
보
나
그
있다
##년
오
##전
##구
마
##동
경
##치
##용
화
##계
##니다
제
##트
중
##며
##00
미
##ᆸ니다
##하는
##여
##문
##러
##산
##명
인
##비
다
국
##세
##이다
모
부
##할
##하고
공
##드
해
##진
위
조
##터
##워
##소
상
##행
##위
유
##려
##ᅣᆼ
##조
##관
고
##선
##간
일
##공
관
##ᅳᆨ
서
##당
##우
차
##재
##금
비
내
##ᅥᆸ
##개
##체
의
##난
##월
##된
##안
##경
##데
최
노
##신
##차
##단
##내
##래
##ᅮᆷ
개
소
##무
##까
##민
연
##그
신
##력
##바
##통
##영
여
##마
##식
##표
도
##혀
##이라
##습니다
##거
통
##미
##역
구
선
##분
##연
있는
##학
저
발
##권
추
우
현
말
지난
세
##운
강
##울
##생
예
##ᅦ이
##ᆷ을
##히
않
##교
방
##출
김
##돼
##르
만
##실
##한다
되
20
동
##방
##모
##품
##발
##까지
##호
실
##억
안
없
무
##했
##속
##중
문
것으로
진
##지만
##타
매
영
##면서
##후
기자
##합
성
따
##오
때
##록
##양
확
피
##료
##들이
##물
##천
교
##건
##청
원
장
분
##법
재
##련
##부터
생
##석
##입
회
##급
특
##준
대한
밝
##포
계
불
결
당
##반
더
##매
##설
스
##던
##각
##능
반
올
##격
서울
##하게
##심
##티
##달
##종
##적인
##류
##져
##다고
받
##번
##근
##령
한국
##적으로
##형
또
밝혀
금
##직
##피
##작
##에게
##른
후
##본
요
##에는
##ᅲ스
위해
##태
##었다
##점
##테
설
##술
10
적
##린
##이라고
출
##파
##찰
증
##약
##하기
##크
입
##임
감
##증
포
투
에
박
##처
##루
##규
##프
##ᆻ습니다
건
단
##날
##음
밝혔다
외
##험
##환
##량
말했다
통해
##결
남
201
##현
배
##질
##레
##들의
혀
##남
##책
참
열
및
##망
총
##육
평
##디
많
달
##두
##감
##외
##론
##ᆻ다고
##장은
##들은
대해
처
##키
정부
##ᅳᆯ어
##억원
직
와
##다는
청
새
이번
알
##ᅣᆨ
미국
##획
행
##씨
##노
높
##자는
앞
##별
##승
운
##께
##람
판
##통령
검
##복
##북
##토
##강
학
대통령
같
우리
파
물
역
##000
##택
민
이ᄅ
관련
호
함
##편
##됐다
##향
##율
로
치
때문
##목
##판
아니
할
북
업
##버
##코
점
##배
양
대표
프
경우
초
집
##된다
지역
##위원
임
작
##익
##담
##황
코
중국
활
##란
##등
##군
두
사업
각
기업
이어
산
것이
가능
관계
##립
##장을
규
##축
##융
했다
##송
경제
법
##사를
##병
##든
이상
##보다
필
##협
함께
명
##항
그러
협
환
##투
##만원
문제
##에도
본
##박
지원
위한
##락
타
등을
##더
12
##도록
못
종
##객
지난해
삼
##카
11
투자
##족
국내
##뉴스
##네
따라
취
심
##으며
##았다
##견
200
19
##에서는
##ᆯ리
##입니다
##하지
##추
변
##라고
##되는
##광
진행
##초
체
뒤
##었
##비스
이날
채
맞
##기를
의원
간
세계
##함
올해
##온
시장
최근
현재
##활
드
##기업
##ᆫ드
목
국민
##될
##경제
##ᅦᆫ
##쟁
있다고
하는
##럼
예정
##하다
##시아
된
광
##액
##쳐
사람
약
계획
##변
##평
것이라고
창
##집
##녀
리
##습
##대로
##졌다
이후
##였다
##례
크
뉴스
씨
같은
##회의
##예
##이나
30
##너
한다
충
##률
##해야
합
제공
들어
것은
##장이
##션
줄
필요
##르면
일본
##절
가장
##시간
것이다
손
##들을
##즈
특히
##리는
금융
살
논
##되고
##하며
##언
##철
##존
카
##했다고
시작
##하면
15
좋
상황
순
##성을
##받
##리를
디
사용
북한
##라는
##겨
##자가
##ᆷ의
돼
##지는
##독
##성이
##서는
##했습니다
따르면
경기
후보
##시스
설명
애
##사업
전문
##접
##벌
아이
##지를
머
##ᆷ이
교육
##말
##사는
근
##랑
##력을
농
##는데
이용
삼성
대상
있어
##극
증가
##시장
##센
개발
넘
##플
큰
##애
결과
연구
때문에
담
##ᆻ던
##름
##층
모두
##은행
속
##브
##길
##득
경찰
##총
##검
##순
##이고
##악
서비스
온
##ᆻ고
운영
독
전망
관계자는
데
표
##응
메
국가
나타
군
##이라는
추진
다양
있습니다
##운데
복
##창
프로
발표
돌
게
생각
기록
편
##채
사회
눈
##하면서
트
##지고
##사가
상승
찾
완
##런
##정을
어려
히
##화를
##기에
언
##츠
워
##백
홍
가운데
브
##늘
다른
를
##희
급
사실
그는
하지만
##커
##스트
라
##범
토
준
##림
폭
절
갖
판매
글
어ᄄ
기술
##색
##균
제품
만들
하고
최고
##리고
권
될
접
##열
발생
##위원회
태
##ᇂ게
##들에게
##연합
##머
##불
은
조사
이에
예상
참여
향
새로
확대
##럽
측
##측
13
##침
잘
버
것을
누
##케
오후
정도
다양한
지금
커
현대
인터
등의
##ᅥᆯ어
##부는
효
많은
확인
형
기대
식
##상을
##ᅮᆼ
부산
항
음
##명이
정치
##한다고
캐
##기가
한편
##최
기준
자신
최대
14
승
##센터
##에서도
##ᆻ지만
책
끄
##엔
겨
마련
알려
25
이런
##자의
##폭
평가
##이라며
허
전국
정책
규모
18
##레이
국제
##략
##ᆻ다는
##기자
##거나
##째
##룹
그러나
16
내용
검찰
하나
패
보고
분석
오는
##원은
야
고객
수준
오전
민주
##안을
들
##널
질
##랜드
낮
##마트
있다는
##폰
테
사진
##혜
는
100
##회를
##곳
가격
된다
친
##앙
피해
없는
이를
걸
정보
등이
예정이다
철
##세를
##지역
추가
##뉴
지적
받아
강조
##수는
50
##업체
용
번
##학교
##리가
해외
##큼
시간
17
아니라
##20
곳
##기관
##느
있도록
네
뉴
오늘
거래
국회
날
##사의
##자를
대비
아시아
휴
너
산업
##가는
포함
##혁
##처럼
##욱
##냐
강화
백
##치를
느
않는
핵
소비
이유
##ᆨ스
##명을
##페
##대표
결정
이미
사이
병
##기로
##켜
##달러
외국
성장
안전
##산업
일부
전체
##도를
##개월
다시
##라인
공개
##교육
열린
하락
혐의
매출
경쟁
있을
##연구
않아
##원을
없다
주요
##그래
##착
면
24
##확
##탄
##원이
생산
모든
##나라
지속
##금을
주장
개선
##ᆸ게
당시
만나
##식을
학생
높은
요구
##이는
여성
첫
빠
직접
축
##위를
나타나
##동차
21
설명했다
##주의
##친
문화
기존
늘
내년
##일부터
대학
##들과
한다고
##일까지
##기도
다음
늘어
##메
##19
##넷
막
##인이
벌
##징
##기는
방문
##시키
##리아
##갈
##막
장관
영향
23
그런
##동을
사건
월
##증권
##롯
##살
새로운
##로벌
##팅
##으나
공동
앞으로
중요
보인
꼬
##훈
게이
많이
수도
수출
##패
시민
##도로
범
##염
활용
우려
##관리
중심
구성
계획이다
또한
##파트
모습
주민
천
쉬
실시
처음
송
##분기
##제로
동안
##했던
글로벌
끝
40
##베
상품
이러
##정보
않고
##핑
적용
##장의
22
##스테
보도
환경
나오
각각
##기술
바로
##제를
##개발
##봉
지방
베
계속
##했고
##하여
영업
##ᆯ라
개인
업체
##세요
##으면
##효
분야
##원의
##수가
건설
선거
나서
##퍼
##취
기간
비롯
이뤄
않은
##시설
윤
##념
있다며
보는
##의를
등에
##합니다
떨어
선정
볼
플
적극
폐
##명의
##ᆺ이
갈
참석
##누
경영
##팀
##력이
상태
##정부
해당
수익
일반
황
##도가
##연합뉴스
올라
##데이
##ᆺ을
스마트
##끼
출시
방송
유지
##쪽
사고
미래
효과
홈
준비
중소
27
정상
확보
##블
대상으로
따른
특별
잡
희
##죄
과정
##인트
##없
##사에
개최
보여
관리
얼
길
26
크게
##글
뜨
##원에
만큼
극
프로그래
##0년
##시는
28
대구
지난달
공급
##자인
앞서
때문이다
##찬
응
##로나
##혹
학교
이는
##동안
힘
##벤
##단체
##주는
##하기로
##문화
받고
더욱
##5년
물론
쓰
감소
##수를
건강
##왔다
업무
##인은
현장
##털
##같
여러
##투자
##점을
비해
울
##와대
키
티
있고
##료를
성공
위원
악
돈
은행
##특
시행
##8년
##지원
역시
등으로
아파트
##시에
청와대
제주
##놓
##충
##해서
##뉴시스
별
##하다고
탄
##릴
떠
##대를
##페이
##탁
##허
##이었다
##거래
##7년
강조했다
##렸다
##붙
골
인천
##전을
바ᄁ
설치
29
콘
##텔
##이며
판단
클
헤
##한다는
##ᅥᆫ드
찾아
신청
의견
##돌
브랜드
##그룹
육
##지가
도입
생활
전문가
##흥
##계를
전했다
##ᆩ에
##이익
평균
##자로
##ᆻ는데
전략
##겠다고
##인을
블
네이
##씨는
##이어
##2년
##밀
침
##동산
부분
##선을
인사
가족
실적
있었다
##부분
있으며
##긴
이제
##가지
##사회
관광
##니까
##권을
탈
##바일
노동
집중
##전자
##혼
##춰
##델
자유
##욕
##하겠다고
##서를
##ᆻ으며
주택
어떠
목표
먹
긴
압
없이
##김
보인다
##탈
만들어
##50
##ᆻ는
민주당
난
인터넷
좋은
싶
##라도
##환경
##웨
3월
##정책
잠
기관
구조
##장과
아직
수사
코스
6월
##부가
##인의
어떤
##짜
광주
도시
게임
흐
예산
대통령은
##러스
조성
정부가
대응
##4년
##풍
자동차
해결
##자들이
##6년
온라인
가능성이
##부를
달러
##되지
##턴
##금융
##상이
주식
터
##3년
##농
##심을
회사
고려
##통신
의미
유럽
##낸
논의
##30
4월
##ᅢᆼ커
즐
##뷰
모바일
네이버
시스테
##지에
##손
역할
의원은
됐다
기능
##조사
풀
##신문
##잡
엄
중앙
관심
차량
##년간
레
##트를
##원에서
##10
##써
받은
자리
놓
코로나
##치는
상당
반면
##스크
아닌
##곡
##ᆻ을
그래
활동
##죠
##민주
있게
##디어
대부분
9월
##반기
그리고
##답
제기
5월
부동산
하루
덧
##9년
##셔
높아
맡
아시아경제
정부는
##다며
행사
대표는
구축
##서울
##ᆯ러
##도시
##텐
##약을
답
##십
##굴
##라며
##가가
##가를
뿐
제시
##어나
선보
31
돌아
7월
##었던
협력
얻
##1년
러
##원으로
공식
있지만
싸
롯
언론
통합
분양
##너지
60
드러
롯데
발전
##먼
덧붙
##닥
석
이와
공공
인정
##하려
검토
나타났다
지급
자체
대형
##별로
논란
수요
##들도
##는다
##휴
##때
존
전자
교수
어린
핵심
##헌
##ᆷ에
##사와
##장에서
밀
본격
이야
의료
의혹
##슈
혁
국정
##장에
##숙
촉
##업을
##퇴
합의
않을
안정
10월
어떻게
##가구
대통령이
1만
앵커
##새
귀
##드는
먼
12월
풍
##음을
##힌
##도는
참가
##과의
가입
향후
##규모
스타
자신의
##움을
직원
이동
보험
##폐
품
##ᅦ이스
##자리
보면
것이라며
행정
##ᆺ한
##클
##보험
종합
되는
만에
##진다
##주택
않았다
넘어
우선
방침
방식
정부의
##시켜
중소기업
차지
방법
1월
알려졌다
8월
##르는
##억원을
갖고
신규
선택
보유
##리당
##춘
##물을
노력
##덕
##쇼
엔
##했지만
##ᆷ은
비판
##자들의
전년
착
##기간
팔
한다는
것도
무단
##윤
이같
격
컨
인터뷰
##서비스
결국
증권
##ᆯ레
##촌
##라이
##뢰
##도의
없다고
##회가
1년
##국의
부담
##본부
##품을
##화가
씨는
개정
덧붙였다
그동안
조선
재판
관련해
펼
반영
혼
##임을
##전히
내려
##스를
고용
##킨
주변
보다
##로부터
##완
##했다는
##텐츠
##회는
지지
각종
##감을
업계
최초
##인데
대출
##칙
대책
외교
##캐
책임
며
모델
수입
쏘
나온
##좌
##픽
웨
##세가
문제가
##율이
남북
##씩
##봐
우수
전달
몰
##밖에
또는
2월
원내
뛰
필요한
##지털
우리나라
위험
##했으며
불법
##관계
다만
##대에
주목
11월
이전
중심으로
영화
구매
##문을
사무
그룹
조직
민간
##바이
혁신
##럼프
까
##일리
대선
##위는
##스는
기반
서울시
아니다
에서
성과
##벽
퇴
##대가
이해
신고
둘
발견
##00만원
##일보
##한국
##대의
##회사
사망
이벤
외국인
##럴
##슨
가까
현지
##탕
숨
영상
꾸
199
확산
통신
연합
활성
징
##되면서
제작
##계획
위치
교통
홈페이
인수
얘
기본
##건설
보내
전환
##하다는
트럼프
강원
##성과
기획
##정이
##겠다
##컴
##하도록
과거
통한
영향을
##없이
70
##삼
##근혜
##ᆯ로
대통령의
봉
사랑
치료
##비를
설립
##암
최종
녹
중인
##되면
##소를
비교
##사진
금지
대해서는
##회에서
데이
요청
전해
헌
##필
비용
회복
##틀
##마다
종목
제출
서비스를
느끼
##정은
##리스
즉
제조
낙
##겠습니다
기념
왜
공연
바이
지나
어린이
과정에서
나ᄂ
제외
##장으로
보호
하지
##칠
시설
##딩
이렇게
##제가
##경찰
전시
있는데
##지로
자연
반대
먼저
##포츠
##량을
대전
##두고
디지털
지적했다
##재인
##차를
##무원
거쳐
사례
전날
##담을
##뿐
경험
##슬
##누리당
받을
##학생
견
실제
##복지
##하거나
장기
공정
처리
인근
##따
없어
##ᆨ시
납
이름
##불어
##자와
##볼
##랜
포인트
##몰
##화에
##링
##카드
미국의
##줄
캠
##방송
##참
항공
##안전
##되어
##명으로
이들
##기사
진출
##세대
##위에
보이
오른
여행
자금
소개
카드
##자들은
제한
##스타
인상
##업계
##즌
##지도
##현지
구속
##겠다는
연결
##당은
체결
스마트폰
마케
##선거
##압
회의
겪
##사로
##머니
어느
##보고
러시아
기록했다
사태
마음
지정
##맹
새누리당
것이라는
##율은
매우
##르고
사전
받았다
##스로
유통
부족
3일
##느냐
##과학
코로나19
울산
신용
##골
중단
##평가
##홍
##실을
##량이
가능성
박근혜
대한민
##부에
역할을
제대로
영국
##지방
2000
희망
재정
발언
##투데이
잇
있었
지하
##청은
이달
무어
##귀
혐의로
##리에
그렇
##척
부문
##11
##소년
##움
더불어
##서도
줄어
##이트
홍보
5일
##당이
너무
출신
인해
경남
지도
찌
입장
##관은
봐
문제를
##00만
해야
##엄
작년
80
대신
##씨가
##항공
##대책
방안
##움이
콘텐츠
##생활
계약
인도
어렵
있기
나라
##릭
움
##탠드
구체
##싱
분위
##촉
##대학
최소
##세계
국방
##값
##시스테
##님
전망이다
국민의
##부의
경기도
##것
##르게
강남
##섭
경찰은
주장했다
할인
1일
비롯해
쇼
##프트
##40
중이다
좀
과학
##금지
늘어나
##치가
##중앙
암
디자인
청년
두고
휴대
비중
##냈다
반응
많아
뉴시스
나와
입장을
##거리
근로
내놓
체험
페
죽
확정
불가
장애
혜
감염
##더라도
이ᄁ
##운동
##소득
점을
뉴욕
##회에
##위가
자산
대변
독일
소비자
##ᆻ으나
위반
조정
무료
중요한
등록
자료
1000
10일
##사고
문재인
방향
삶
파악
2년
프로그램
감사
보이고
측은
3년
규제
35
사업을
##쳤다
원내대표
20일
##12
##칭
한나라
##이가
동아
변호
##꼬
움직
나가
##이기
이하
페이스
국무
주가
##뜨
##회담
##흐
능
공간
전기
소속
불과
##15
##랑스
##상에
보였다
회장
붙
국회의
##행을
앞두고
##픈
상대
광고
방안을
얼마
##했다며
관한
##지지
##치고
##발전
몇
##올
##60
##하던
예방
##24
담당
##단을
지분
불구
##킹
그런데
꼽
이들은
이상의
창업
4일
##전문
##액은
##률이
##스코
##상의
통과
##병원
##18
배포
영업이익
##걸
##케이
누구
이사
##격을
##무리
전통
대한민국
소득
짜
취재
##렴
##율을
##옥
##멘
##기의
15일
방침이다
##권자
##에선
들어가
##00여
##시가
연속
사회적
##지면서
##수의
##건을
##억원으로
내부
에너지
7일
페이스북
##식이
한미
##현지시간
정확
기사
##ᆨ트
못한
2일
어려운
충분
사람이
##점이
##쇄
수상
##단은
취업
##트워
최저
달리
##핵
현실
강력
펀드
##랫
##들에
##하자
##스터
27일
14일
일이
##다면
동시에
##조정
규모의
전용
9일
12일
연합뉴스
바람
8일
역사
##명은
하이
교수는
마지
쿠
가지
받는
2차
맞아
여전히
가능한
##자금
##제품
혜택
삼성전자
##있는
관심을
지금까지
단체
##25
##활동
만든
##대는
도로
머니
30일
##데일리
유치
등은
11일
프리
목소
##관광
##콘
북한의
23일
##ᆻ기
##개의
되고
푸
##다가
애플
6일
협의
##관이
25일
##하기도
##즘
금리
##공사
##구를
근무
28일
26일
정도로
홈페이지
22일
##인지
투입
질문
##ᅯᆯ
센
작품
채용
##으로써
소재
표현
16일
13일
##되며
전남
17일
##학과
부정
##화와
##펀드
##쉬
하면
일정
휘
18일
##됐습니다
##쯤
촉구
조금
##휘
노조
둔
제안
##보는
##경영
퍼
마지막
19일
##구가
살아
이른
##플레이
빈
마이
##하겠다는
##반도
내용을
24일
마케팅
데이터
21일
##이를
##으로는
언급
사라
이벤트
2012년
매수
##ᆸ을
##성장
##보다는
채권
##왕
당선
투표
모습을
숙
##화된
##닷
##당의
여론
##만에
##부와
단계
##등학교
##관을
수도권
왕
회원
밝혔습니다
인한
##구조
같이
##일을
합니다
##혈
남성
가능하다
기초
경북
이러한
배우
##자산
##상품
택
알고
스포츠
빼
보건
##ᅳ로
인기
##주가
##률을
국토
##자에
##안이
##대한
1천
##사에서
시스템
공모
깨
##쿠
##물이
##ᆮ고
##줘
##얼
찬
회장은
유명
##첨
##ᅪᆯ
핫
의견을
삼성전
##스가
##ᆻ어
##콩
29일
##주시
##히려
개혁
추정
제도
##협회
잔
##인으로
##하는데
프로제
결혼
##와의
지켜
신뢰
자세
1조
아울
##이자
없다는
##찌
##안에
2015년
일자리
빨
깊
##자에게
##ᅪᆯ영
무역
꿈
밤
검찰은
을
##싸
흔
##국은
점검
가진
비롯한
확진
이번에
주도
##하지만
여야
매각
##기준
열고
##로는
##13
이루
벗
##80
상장
작업
##증을
프랑스
번째
대기업
시험
쉽
오히려
##000만원
##회견
##성에
##화점
대우
##된다고
머니투데이
복지
##적이
##뉴스1
##니스
뛰어
##었다고
##70
상황에서
##단이
##법을
##됐다고
##간의
그래서
##빈
##교통
업종
##가격
비스
형태
총리
##지구
음악
젊
좋아
감독
바탕
조치
##기와
##키로
선물
탑
매년
군사
뜻
##지의
##만큼
호텔
2014년
관심이
##국이
세종
몸
대규모
34
2013년
##노동
45
제2
##협력
아울러
대체
사실상
현대차
공격
2010년
##리지
청소년
끌
##춤
놓고
##뮤
##포인트
무엇
못하고
드러나
트위
운동
나선
시도
어제
##웃
##억원의
옮
좌
선고
##괄
##랙
심각
공유
처음으로
##감이
경제를
시각
##납
기준으로
국립
##명에
가정
기자회견
연간
니
##원과
슈
33
순매
##률은
##졌습니다
괴
##닝
##수록
훈
##협의
##주를
낮은
공무원
##셜
고민
##앤
웃
주는
2만
쉽게
##트워크
기여
사실을
밝히
##프라
채널
예상된다
쪽
##식품
졸
위해서는
뇌
이익
그대로
##홀
##억달러
##둔
정신
평화
##연구소
거의
마감
있던
알아
정보를
창출
##단계
매일
2011년
가져
토론
스스로
##디오
열어
솔
건물
긍
임대
행복
##전재
그의
재미
##이드
수행
래
장관은
갈등
계열
텔레
##스럽
기업의
##정치
##16
여름
32
긴급
##단지
##대비
수밖에
##연금
정권
불안
##냥
했다고
서로
차례
##대학교
##작권자
모집
가지고
갑
우리가
잘모
벤
실제로
상반기
우리는
##상은
한국의
##대출
범죄
##했을
90
추천
##됩니다
냉
무단전재
2008년
결과를
발표했다
늦
##컨
##렌
이유로
36
망
반도
총선
이같은
지속적으로
벌어
맥
하반기
음식
염
##올리
##14
##가기
변경
##개를
감안
변화
사상
##결과
10년
긍정
나는
##공항
베이
중국의
대법
했습니다
##끄
컴
##퓨
5년
##위로
약속
수석
구독
차별
연구원은
##제도
##스티
발행
활성화
##러운
##게임
바탕으로
##ᆯ이
규정
입주
필요가
마을
가스
억
수술
##사일
써
##보호
세월
얘기
연계
아무
배포금지
소송
선수
부모
##23
열리는
##차례
라이
해소
##금리
통화
보수
도움이
사람들이
판결
##17
##구의
통일
##맥
##번째
액
이야기
선언
보도했다
##마을
특징
둘러
특정
비상
##장관
진단
##인과
##스의
기소
##부문
제품을
집계
##받아
##주년
##프로
검사
보장
##역을
바뀌
오픈
전북
접근
전반
예비
곧
언제
출연
바라
##위원장
자본
꾸준
색
2016년
지원을
##회장
넘는
마무리
서울뉴시스
않다
돈을
발생한
젊은
##자동차
코스닥
북한이
##오는
출발
##스토
맞춰
의원이
##인가
##량은
셈
##테크
등장
##톤
상대로
##트로
의무
시청
측면
##ᆻ다며
##금이
반도체
##펴
##만의
##면서도
빌
자녀
딸
자기
##세로
정당
##들어
해도
##씀
반발
1차
끊
##드시
##가의
##전략
##점에서
##금은
구입
건축
##관련
따라서
##괴
##랫포
달라
팀
지키
옥
2009년
##요일
발표한
##과정
##륙
##위의
##닷컴
씨가
아침
이명
달성
##000원
##공업
서울연합뉴스
전화
흥
##베이
##하우
대북
전쟁
소방
##했으나
매매
##감독
##가고
##제재
##개혁
갤러
##민주당
##영상
##시의
외환
단순
작은
##고를
##자치
##돈
##도에
##션을
나왔다
##진을
내일
활동을
대중
##아이
전면
3개
트위터
##대회
##켓
포함한
유엔
집행
정기
혈
고위
화장
원칙
인하
찍
##으로부터
법무
##제는
##분을
최초로
문제는
어디
빚
##내는
##트남
코스피
소통
루
##릉
##주고
198
것입니다
섬
실시간
##프리
##학년
첨
수는
사장
충남
##실에서
말씀
바란
듯
##받은
내가
##구는
##시키는
##단의
되면
반드시
덕
흑
살펴
한나라당
##시를
인식
##이지만
##푸
##수수
##카오
설계
식품
자동
재무
효율
충북
재산
##코리아
전혀
##톡
이같이
얼굴
다소
관광객
걸쳐
##차가
2017년
##궁
##직원
이재
묻
##콤
거부
##컬
시장의
##자체
그렇게
쏟
앱
되어
선진
홍콩
분명
##재를
말을
이용해
2020
싱
##씨의
##항을
작성
##었고
없었다
연말
응답
슬
당부
##조합
끌어
힘을
##봇
##만을
프로젝트
뽀
편의
혐의를
사장은
절반
##튜
예술
잃
##통합
넓
불구하고
협상
##자원
선발
특허
김영
##산물
완화
##지와
##대상
프리미
##웨어
한다며
##관에서
##국제
술
##가족
38
##리기
것과
##22
##쇼핑
##했는데
접수
출범
한반도
것에
상황을
시간이
영어
촬영
##주로
##길을
당초
1인
##테이
##전에
특수
꺼
안에
점에서
위협
불편
배치
##적을
대화
주거
잇따
다음달
##속도로
계획이라고
시장에서
##진흥
전에
500
칼
##시스템
##풀
넣
일을
사과
나섰다
##곤
외부
주말
##므로
졸업
쇼핑
해양
##헤
증가한
출마
보이는
철저
일단
안보
##비용
후보는
늘어난
법률
여기에
대표가
겨울
주로
나온다
조합
베트남
##싼
플랫포
##린다
1억
##더니
잘못
강한
논란이
의해
가량
##규직
##일이
땅
##내고
기술을
신한
공사
##소에
##비가
독립
실질
때는
겸
##쓰
2007년
##리의
##정한
근거
##나는
##겠
걱
##듭
##90
등에서
친구
미디어
##빠
해석
세월호
않는다
##받고
쌓
펼쳐
환자
##리한
해서
##려는
효과를
##시장에서
밝힌
주문
##로운
##27
소식
우려가
단지
조사를
인권
이명박
##타임
##소가
존재
상황이
허용
##포트
취임
##액이
##공단
##웅
완료
제공하는
##건이
나머
37
보안
스트
##해를
##알
발굴
멀
왔다
##선이
한번
##지수
작용
맺
##벨
시장에
##함을
55
부과
나오고
직장
진입
명의
아래
대해서도
##만원을
5개
##명과
##체를
##예술
##000억원
##종합
##등급
많다
##신을
##경기
이슈
불러
##분야
나갈
##인다
이곳
6개월
##갑
방식으로
추가로
##텍
골프
조기
병원
##시험
##한다며
시장은
없을
임시
끼
연장
여기
친환경
읽
궁
여의
##운용
낸
수원
느ᄁ
피부
주력
##연구원
##공원
제1
헌법
##200
품질
##법인
정말
제공한다
쏟아
경우가
##적이고
신설
가치
비난
시간을
##구역
맞는
팬
실패
문의
아동
##하려는
43
##이사
운용
##ᅢᆼ크
##리로
처벌
인력
##경을
북미
##로를
돌파
##전이
##분이
흐름
모아
##점으로
##28
##은행은
##26
##흡
##표를
주고
기능을
주제로
혹
익
등도
지자체
탐
내다
##부모
부인
##측은
최고의
4개
만족
의사
얼마나
44
동반
지상
##판매
올랐다
거듭
시절
##시킨
지역의
이탈
상담
자율
##액을
##만이
##니아
##수익
수가
##조선
##당을
수용
웹
보니
만드는
훈련
아니냐
기다
꽃
획
화재
정의
케이
뒷
나눠
65
##정에
운전
##진이
##서의
##엘
자치
##빙
##무를
10시
##럴드
테러
빅
위해서
김정
관계자
전해졌다
인공
##후보
##제의
여부를
##준다
##기구
대폭
셈이다
##수로
행사를
39
##안은
##000만
300
적극적으로
시는
요즘
##조를
아버
##군은
일으
##드를
##파크
아름
거주
신문
내린
##사인
##배포
미세
사는
믿
관측
##함으로써
앞으로도
형성
피해를
청구
##리스트
9시
개편
##꺼
##메라
##분의
안내
##회의를
원하는
소유
##29
##해도
급증
자신이
##대에서
증가했다
##계약
효과가
##샤
증거
##퓨터
참석한
네트워크
수수
##제한
##에만
##건축
춘
##하이
육성
##상황
##계가
##씬
그러면서
경찰에
사람은
선임
##짝
##형을
##론을
##면을
##서에
프로그램을
##운영
정치적
##체육
##회의에서
스페
##사업을
##에게는
직후
국내외
바로가기
이내
3만
##시킬
##스탠드
되지
##하다며
기상
유일
하는데
##약품
급등
##플러스
##이란
##권의
##제에
뮤
##려고
2018년
꼭
##렬
##성은
기부
##생산
시장을
##롱
##소는
##우는
없다며
##전화
뉴스스탠드
남아
##서관
##인들이
책임을
관련된
##봤다
##소에서
인증
기업이
##시민
##어를
##되기
연기
31일
##재단
##00원
##건으로
48
위치한
##였던
##뮤니
이틀
##가로
극복
포함해
##위원회는
등과
타고
화학
대변인은
상위
##해양
초청
일본의
##아가
확인할
기온
흡
징역
세계를
기회를
##티브
하기
패션
##수사
단독
걸리
반응을
힘들
##군의
##스와
##씨를
##으니
지식
##라마
축소
##21
##보를
휴대폰
1위
김정은
##활동을
더불어민주당
브라
##수도
##으면서
##룸
##바마
##력과
악화
##다운
단기
명이
즐길
성폭
##듯
75
트레
스탠드
정확한
##보면
구체적인
던
신속
샤
성과를
갤럭시
겁니다
서울신문
빠져
만나세요
낮아
##과는
챙
상대적으로
현금
공천
시작으로
바다
떨어진
국회에서
메시
맛
전문가들은
제가
##겼다
꾸준히
분석했다
##무역
경고
명예
##점에
##아시아
서울대
가격이
##트는
빠른
농업
##조원
##의원
쌍
월드
2천
혜택을
##호텔
##만으로
##한다면
레이
필요하다고
##꾸
맞춤
방치
1분기
오늘의
전망했다
커피
기억
집단
##인터
##우고
에어
매입
위안
주의
##사무
제3
인간
##솔
융
가능성을
행동
##기고
오바마
##적이다
있다면서
이란
균
뚜
위기
조치를
차원에서
무단복
진술
##제재배포
무단복제재배포
상임
밖
##정상
##도와
46
##이지
압박
돕
실현
##어야
##상공
2006년
##들로
가는
까지
전일
##해주
##었지만
##장애
##미디어
변동
##스플레이
나머지
들여
임금
부여
오래
##개국
##짓
##파원
실무
수준으로
시장이
없고
심사
자유한국
의심
찾는
##리와
자격
자세한
##생을
정책을
##ᆻ어요
##없는
##받는
전력
못했다
동일
프리미엄
마찬
주차
가구
제재
적발
이처럼
##에서의
수립
##부장
류
##점은
포스코
##류를
부품
비가
부진
##기획
못하는
바이오
##티즌
##벼
충분히
새벽
이용할
##별로는
##질을
공직
##까지는
##호를
새롭게
##위기
끝나
실천
다르
벗어나
인기를
관련한
시작했다
예측
사실이
##면적
증시
마찬가지
전주
##평균
##몬
##기지
47
강력한
원을
49
이유는
##구청
비즈
신종
##낙
2005년
하며
##35
##처리
평가를
이른바
훨
계획을
##겨레
늘었다
노인
센터
컬
동의
관람
##레스
초기
씨의
##상으로
##ᆭ은
도전
완성
배출
앞에서
##돼야
노무
4년
150
##라면
##큐
구글
##컵
답변
위원장은
3개월
밖에
현행
자리를
훨씬
카카오
##권이
##목을
임명
상호
속에
##리즈
담은
고급
뜻을
어려움을
단속
부사
석유
##ᆰ은
동원
떠나
법인
##향을
폭발
본격적인
부실
사퇴
##증권은
##룡
##틴
개별
##됐고
캠페
장애인
유로
발사
##라크
우리의
평소
환율
사용할
남편
##국민
여의도
##해진
선박
##시장의
생태
제일
구간
##핀
수주
정리
##라우
스탠드에서도
바른
자주
기울
##다른
비슷한
그리
##0년대
대통령과
노력을
않도록
##지검
아이폰
블랙
취소
##건의
##흘
좋다
올해는
인프라
##이에
것처럼
빠르게
충격
##행정
않으면
기자가
최신
시작한
일어나
갖추
학습
뉴스스탠드에서
##어서
하다
네티즌
갖춘
형사
한화
##44
솔루
케
차단
지하철
##경쟁
##스러운
##체가
##공간
후보가
56
지구
##보가
구성된
영역
횡
##읍
##권에
##중공업
정비
적이
그린
도착
바꾸
유출
선호
가동
무려
자원
52
##중인
공장
청약
부회
##크로
상황이다
속에서
향상
##부터는
욕
##웠다
##법에
올려
곳곳
뽑
국회의원
##가스
눈에
적절
아주
시즌
갖춰
서민
도움을
강제
시스템을
계기로
제외한
##지수는
개방
리더
유동
흘
##차는
전세
쓴
밑
있지
추세
태양
리포트
받지
##해온
채택
##비는
##뿐만
##먹
배경
##튼
유입
59
회장이
##효과
개입
뭐
공공기관
헬
##철수
##녁
후원
##리핑
##이면
##수석
##싱턴
##산을
바꿔
3분기
회담
줄어들
확장
저작권자
##만5
쌀
##000여
취득
##지사
##기능
##려면
##중에
메이
##대와
뿌
취약
85
미리
##청이
2분기
##보세요
##됐던
##계의
특검
##하세요
동해
쉽지
포기
주관
적극적인
소프트
동아일보
대학생
주최
접촉
말이
저렴
같다
봉사
##혁신
##조차
##버스
대해서
검증
상태다
##총리
##꾼
오르
##였습니다
##동의
##분께
##맞
알려져
과정을
객
##종의
##갔다
##둘
경쟁력
##맨
##분간
##ᆫ쪽
인물
저는
컴퓨터
지역에
운영하는
진행한다
이야기를
##자들에게
##정의
순간
가까이
동기
##범죄
마스크
가격은
기아
보조
이행
커뮤니
보통
있었던
##올림
시가
사법
재개
84
기자회견을
##수요
진행된다
교체
##당한
##하라고
##어도
미세먼
김종
##나무
이미지
폐지
노출
농협
최선을
최고위원
보입니다
##사들이
거론
다가
양국
##드로
달하는
뿐만
한겨레
##군이
걱정
주인
##ᅰ손
대표적인
올림
복합
##조사를
뉴스1
197
베이징
불가피
메르
오피
노래
검색
등이다
다니
높다
이젠
##호선
풀이
카메라
방문해
4분기
유도
초과
내고
건립
##캠
했지만
##훈련
##이라도
##공동
수요가
여자
##아야
대기
##치지
엄마
추석
목표로
##비아
##00억원
간담
##거운
##임금
말했습니다
수사를
##쿄
동물
##받을
##종목
##습니까
##자기
이로
##지게
64
시범
사이트
총리는
2020년
##ᆯ링
빛
##의료
사항
코리아
##기기
원자
##빛
그가
합병
어머니
##웨이
이외
학부모
##백화점
미국과
상품을
##달라고
특파원
##지면
된다고
문을
옆
높이
활용해
##시키고
야당
지시
##수에
연방
가까운
띄
투자를
##것이
부처
신경
##꽃
이루어
주가가
##공개
##둥
권한
체계
파트
하나로
확실
나누
53
했
미사일
저녁
##영업
42
##잔
삭
지금은
##릭터
2000년
##올림픽
탑재
표준
##매매
이끌어
아마
##프리카
그것
##스에
누리
20대
사이에
이어질
##자들을
정부와
##특별
지배
##선에
심각한
##노조
불가능
##릿
##명한
##사이
공시
단일
곳이
첨단
요금
매도
이르
노무현
총재
봄
어려워
활발
반복
당부했다
##메이
카페
##식으로
벤처
한일
슈퍼
한국경제
내용은
김성
대회
##가에
누구나
출석
통계
상무
##45
2시
중간
지원하는
워싱턴
4대
점유
이라크
천안
##어난
머물
운행
플랫폼
부채
##등록
내용의
거리
모양
교과
##닉스
가계
호소
의한
##질이
빨리
고발
트렌드
인구
##영화
필요하다
뉴스를
다운
##유의
탓
치열
잇따라
결제
2004년
##해왔다
일자
바란다고
창원
라인
떨어져
김현
##놔
##시티
눈길을
중에
하면서
공감
##서가
##설팅
개설
청주
##이라면
미국이
이중
제거
##럴드경제
손해
##봉사
수준의
##운드
##직을
##선의
##문이
무엇보다
##케이션
열린다
나오는
캐릭터
41
고통
##분에
정상회담
##질환
됐다고
런
57
##이어서
##검사
질병
안파
##롭게
##지에서
느껴
체포
이정
##33
이들이
마음을
의혹을
예정이라고
노사
풍부
장비
방지
나올
탄핵
수급
##데이터
연출
점차
인재
2개
미술
등급
생명
##자료
짓
비즈니스
도쿄
내용이
설명이다
##방을
##주민
##주일
옛
##은행이
년
시대
옮겨
짧
가을
자리에서
당연
필수
주주
늘고
202
##까요
대로
스토
내세
사건을
법정
올림픽
이데일리
##은행의
싶은
설정
##안의
##국에
##먼트
것이란
##있다
든
##력은
##니터
##성의
##실이
##치료
하락한
강원도
지속적인
디스플레이
가능성도
##량의
성능
비행
받아들
내에
##작용
습
포항
사업에
##논
##해와
고양
시사
계약을
역대
있어서
절대
태풍
54
최대한
나설
최우
춘천
보상
##안보
자료를
죄
서울중앙
조사됐다
절차
2018
이름을
##가능
##스럽게
##팀은
통상
##31
움직임
알려진
당장
##낼
공항
충돌
드라마
##심의
기자입니다
개발한
경쟁력을
이용한
임직원
##하고자
제보
##인에
표시
##중한
대책을
##됐으며
##사항
##연을
벽
기회
이상이
부담을
아이디어
만난
고려해
이벤트를
시내
상징
##장비
지역에서
6개
했던
완전히
들고
##지법
길을
국세
수정
##제와
보유한
##하나
##짐
내리
##칼
내다봤다
##인들의
##전거
급락
58
양성
전개
##로서
##보니
##했기
##분양
유사
##36
안철수
##가포
보기
떠오
비중이
하게
바이러스
수치
동부
##파이
금감
##건에
##판을
11시
방역
공약
##보증
소환
##건강
##팔
앉
유가
파견
내수
출입
서초
##구에
##상에서
99
기타
문제에
##겁
##화로
가치를
곤
수능
회계
추진하고
##55
새정치
있으나
##함에
가맹
##으로서
아베
특별한
버스
##니어
3천
##주에
##동에
의결
##아요
##수산
넘어서
##이라면서
##억원에
원내대표는
이탈리아
##위원회를
백화점
상승한
##법이
파트너
말한다
착수
검찰이
##용차
분야에서
##기금
분위기
손을
걷
맞춤형
##청에
폐쇄
틀
결의
##유가
##만명
##세에
##ᆼ장
철도
회장의
##화학
##트리
합리
듣
기존의
점이
비판했다
질문에
끌고
비정
실험
파이
자유한국당
##쁘
##시장이
질환
전세계
##마저
아내
우수한
##여명이
전투
제약
##소로
호남
보완
##개선
테마
##빌
##국가
놀라
최소화
못해
대처
곡
##히는
평창
120
희생
##국을
겪고
남부
제조업
##만9
관련기사
타이
##세는
선도
##상태
재난
경찰이
규모로
비핵
조언
선생
##지기
비서
누적
##력의
##소프트
실종
##닉
상당히
매장
부상
부장
모여
현재까지
6시
##멘트
##듀
굳
합동
51
##자이
굴
교육을
##나가
##ᆷ버
##리트
일제
아니냐는
작업을
나타냈다
차이가
적은
##여행
상승했다
실업
결과가
개성
활용한
들어간
집계됐다
##섯
진행하고
만약
만나보세요
##ᆻ으면
##소비
##만한
됩니다
##신이
구현
안팎
많았다
넘게
진보
2003년
기반으로
대만
물가
직업
재판부는
##시장에
95
광역
연구개발
##위원회가
모니터
규모가
줘
기획재
저희
##체험
##ᆻ는데요
##화의
조작
도심
##이데일리
상황에
평가했다
이들의
##바이러스
자체가
##세포
화장품
오랜
현장에서
임원
게시
##책을
아이테
이상을
업무를
끝에
호주
예고
##드리
펴
시기
합격
이끌
##추진
통보
제공하고
가상
모르
창조
남자
지연
##쩌
현황
반등
모색
##상승
사진을
그림
사용하는
##37
##젠
종로
하늘
전월
##식에
매출액
따뜨
##체계
의지를
주재
크리스
경우에는
##어가
연휴
스위
가로
돌려
담배
저축
30분
과도
로봇
유리
절차를
품목
##나다
작가
치료를
##이던
세금
##화는
분리
##분석
서해
법적
교사
소형
무료로
상향
신임
싱가포
원전
분류
##텀
##지능
중심의
재건축
입찰
생존
성남
2배
초대
배제
높여
교류
섭
변호사
총괄
##령을
소프트웨어
개막
##시장은
##진은
##원장
브리핑
결합
##적으로는
동양
금융감독
물류
##신청
매출이
급격
##투표
변화를
폭행
하락했다
2002년
무선
##망을
##일은
수준을
##보건
##팩
도와
##34
##준비
강릉
##거든
##인터넷
##쁜
##회와
동영상
67
외에도
수십
##고가
미국은
드러났다
초반
외에
10여
##실에
생각을
##든지
의원의
##예산
시작된
보인다고
강하게
##셋
##처를
##학을
##재판
이승
피해자
승인
증정
당첨
근본
시리즈
플레이
생생
예약
##해져
##단에
##업에
66
참여하는
77
만들기
연락
흉
##ᆼ크
검찰에
##권은
경선
제휴
위축
##주기
심의
앞에
제공할
##38
##대문
대리
조달
놀
고령
협약
도내
한정
##확실
7시
##조직
일각
보증
##타운
내달
##에너지
##덴
하나의
있다면
음성
참여한
자랑
1위를
##조건
중국이
지방선거
세계적인
받게
삼성전자는
##아파트
경제적
##ᆺ글
해운
##밍
이래
할머니
배당
들어서
확충
5천
살해
대외
커지고
선출
여부
둘러싼
말까지
##면에
아쉬
절감
때까지
##었는데
##노총
세상을
##하면서도
김태
보유하고
상생
기록한
생각이
바닥
성장을
차지했다
공무
흔들
##콜
보급
토지
##리어
목적
입법
사이버
일대
세부
씨를
비밀
순매수
##바로
##보기
##ᆺ불
장관이
키워
영향으로
##심사
신세계
##력에
글을
2조
##자유
데다
##설을
토대로
##혔다
향해
적지
말고
차세대
사람의
갑자기
무슨
안타
그리스
##각을
국채
##널리스트
내에서
마치
##지난
불확실
##라우드
허위
솔루션
북한은
뮤지
부담이
참고
노후
즉각
68
##위에서
결정을
아름다운
##전쟁
##시와
##사이트
브라질
자살
쟁
김대
만한
잡아
목소리를
##로드
##포럼
개통
##우디
심리
당분간
우승
공략
법안
##야기
소폭
##소의
유기
##동아
##고기
##39
##센터에서
퇴직
점도
이스
##란드
무기
굉장
리스크
운영하고
##번호
학생들이
두산
기업들이
적합
비정규직
피해가
##깨
낼
쓸
##이즈
##부산
##거든요
촉구했다
본격적으로
##뇨
계좌
자전거
나무
원유
##어진
동남
용인
벌이고
줄어든
입학
##둬
시위
승객
##롭
크다
상승세를
##섬
##관에
가득
구제
세워
종료
##됐다는
연예
전략을
196
##전한
투자의
공부
##자들
사업은
사고가
##네시아
##모델
##짜리
용산
불리는
청문
##미래
중동
싱가포르
##액의
##묘
농촌
침체
형태로
##만8
없습니다
##전은
4차
막기
메뉴
##관의
사람을
##어로
관세
콜
값
곳은
진정
필리
수준이다
##마이
발급
철강
녹색
2억
규모는
서울경제
훼손
척
축구
##개로
##ᆻ는지
##터리
경상
##ᆸ은
편리
##65
명확
중구
##ᆫ다
##채널
실적을
투명
##삼성
있어야
숫
지적이
점포
##월드
있는지
##종을
초등학교
##문의
실시한
통제
##계층
2019년
##실험
공동으로
임상
수수료
##생명
넘겨
이제는
78
2019
##시켰다
진료
##억원이
##해주는
##문제
누가
평양
간의
##자치단체
##주주
지표
##주년을
##받았다
중국은
묘
탁
직무
##통상
8시
특징이다
##레이드
##주식
대거
날씨
남은
##지자
##놓고
##그램
안에서
일시
##센터를
수익을
르
저지
당일
인공지능
##뤄
##당에서
올리
거래를
3시
실내
같다고
회의를
블루
그때
에이
안정적인
##셀
##조치
##수준
##47
##토록
권고
종교
산하
##트가
받는다
##공장
경험을
##이하
추구
복귀
##48
커뮤니티
관객
발생하는
굉장히
캡
##법은
나이
##테인
삶의
듣고
기회가
대표의
지출
패키
장학
문제로
발생할
##겠다며
덜
앞둔
##넘
제품은
##어는
김경
차지하는
댓글
사무총
비대
정체
##용품
무상
창의
63
협조
김동
중고
범행
힘입
##49
##교육청
연령
##기록
##렉
##미나
힘든
##사태
이르는
애널리스트
도발
택시
주인공
명품
감소했다
관계를
##관과
중부
30대
길이
지수
아들
##상과
혼란
침해
기대하고
정착
그녀
줄었다
기계
민족
진행된
미치는
##피해
만들고
대부분의
##201
##현장
##창업
##물질
똑
##철도
영양
찬성
##제공
##소송
##기업의
인용
중장
교환
위원장
##전의
1인당
##스텔
시급
추진할
셀
유력
한강
##수수색
##폴리
분야의
##69
##널드
의미가
##몽
##담당
의미를
사람들은
돈이
설문
내렸다
맡아
쇠
원인
##평양
3차
답했다
예산을
국내에서
3대
##됐지만
##계획을
혹은
##었습니다
##죽
##서울뉴스1
미만
##서비스를
경계
만기
##행위
##대화
시중
##힐
20여
제주도
안타까
상한
압수수색
삶을
깊은
##묵
때마다
5시
가벼
몰려
분명히
이뤄져
##화폐
행사는
최적
엄청
피의
잠재
##업체인
##공급
의뢰
고소
미래에
지휘
##치게
아프리카
##점검
결과에
늘려
##끔
##산이
제목
생겨
수시
##업이
모습이
대한항공
지난주
바람직
건조
방사
올린
##감한
##음에도
준공
소셜
이웃
##명에게
##녕
##상담
당국
##만원으로
정도의
폐기
##바이오
이어지고
공화
기대된다
국민이
제정
조지
부각
고교
금호
돌입
측면에서
10만
##연대
마친
과학기술
특성
##씨와
##석을
하겠다고
##세기
정보통신
구조조정
##자도
사건이
##선은
요구하는
민주주의
##븐
미세먼지
못할
일상
##시대
##력으로
스태
##기온
이밖에
인도네시아
##탑
신입
높게
유니
쪼
##럭
##책임
##식은
한달
늘어날
경제가
##증이
차기
1층
컨설팅
##ᆯ리고
물러
보건복지
실적이
다이
분쟁
비슷
무게
포토
캠프
사업이
참석해
##제약
조건
달라고
텔레코
##복합
궁금
멈
10개
##동이
69
직전
방법을
##론이
확인됐다
민생
편집
맨
##많은
당사
국민연금
지수는
##홈
개인정보
한국인
상당한
##함이
획득
##미를
##듬
넥
##회복
강의
##멸
나눔
멀티
텔레콤
제고
한은
##신의
원장은
힘입어
##순환
##부처
5만
개헌
00
잊
페이
신흥
충청
캐나다
##데요
모으
주한
부작용
##닌
멘
##하시
##하겠다
면접
겨냥
##트의
않았다고
성적
##졸
대통령을
##하려면
2015
전원
숲
전망된다
##투자증권
부당
준다
다녀
담긴
쓰는
착용
화물
##만간
있으면
##세계를
상업
##하라
한국은
##관계를
기대한다고
보일
그만큼
담아
자회사
##위원장은
풀이된다
##밥
##첩
##중국
##지주
자극
기업들의
의견이
##측이
미칠
##잉
시상
제시했다
##체인
백악
성폭행
기준을
마쳤다
##랄
전날보다
##문학
##봐야
블록
강경
이종
폴
실행
아르
건의
동참
##일에
즉시
우주
##견을
##된다는
사례가
구속영
##지인
자금을
분기
##는지
한중
7개
##시설을
##브리
치러
인터뷰에서
조만간
회사는
##저작권자
한층
했고
맛이
보관
일은
않다고
##찍
##치의
전망이
##일까
붕
부족한
부분이
2017
##폭이
부총
##쿨
62
##시장을
단말
진행할
입증
반박
클래
##엽
저소득
1명
고속도로
지원할
축제
않게
연금
줄여
지진
된다는
조사한
끈
법무부
##네이
##선언
##46
##자고
##통화
추락
금융기관
##행사
##지표
월드컵
올렸다
수익률
본격화
산림
##수와
해명
##기념
##음이
세무
혼자
탄생
##되자
##물로
##재생
##이상
계열사
79
##재산
필리핀
##물은
국방부
일환
테스트
증권사
긍정적인
##만달러
##물의
72
이것
보이지
의사를
의장
내외
활성화를
과연
설비
대해선
세대
낳
여당
선보인다
##실장
융합
김용
참석했다
참여할
접속
88
발전을
제도를
런던
##점과
##안정
떨어졌다
헤럴드경제
##프라인
계기가
몰라
없애
76
##능력
비례
국산
##앞
내정
한국과
유행
한때
스티
##호가
사드
##업종
##현대
국정원
설득
##형이
체육
모임
##센터는
##미술
진짜
역량을
미니
##심히
뮤지컬
일으키
##결을
냈다
촛불
##박물
##지며
컬러
##관련기사
적자
##심이
회사의
숨진
협력을
김기
해상
##업무
감소한
가격을
전공
10대
활용할
##ᆺ은
##경북
낭
##인도
발휘
자사
여론조사
뛰어난
##어요
소요
한해
##신고
장을
기획재정부
##지어
경우도
##뱅크
소식을
여수
쾌
위에
천연
집권
전경
후보를
보낸
찾은
이동통신
휴대전화
엠
행위
신제품
##전환
그럼
조절
당내
변화가
성격
최근에는
수집
구분
하향
##식에서
고정
사기
경매
소상공
개발을
항상
##중이다
기조
코로나바이러스
##다시
##개가
##됨에
방향으로
한국에
편성
##벤처
##소와
노하우
비교적
4시
공포
들었다
후속
##안과
1등
본부
이유가
##만원의
독자
##젤
##셉
이자
김재
서울시는
##재가
북핵
무시
##말로
징계
##해질
이뤄진
분위기를
##여성
있음을
신용카드
##사랑
2001년
한진
1시간
##튜브
마감했다
##유를
상당의
비용을
하이닉스
프레
부대
높이고
##사건
##제보
여파
느낄
##코로나
라는
무너
##미터
##또
스타트
##오고
##협의회
했는데
##체의
위로
미래를
입국
여객
남녀
묶
긴장
끝난
초등
##만7
자문
이주
이스라
김모
납품
##59
상환
화면
##본부는
붙잡
##처분
##고속도로
적립
맞추
화보
##단과
지역을
열었다
매달
아예
##료가
가속
##사업에
민주당은
대화를
2층
앞장
소설
부탁
##41
##법상
대법원
##로그
발효
동북
아프
시가총
참여해
간편
저장
##회계
환영
달려
예상했다
61
##기반
탑승
##평화
조례
본다
##너스
아닌가
국민의당
이뤄질
유발
수많은
피고
발언을
##가량
선정된
철저히
따로
박정
20년
##향이
이마트
##같은
##었을
민원
##스탄
깔
경우는
##류의
기록하고
주식을
##느냐는
##버그
개발에
후보의
고객이
내는
점점
##위원회의
전담
대사
중도
것이고
일방
원활
입을
중순
전후
##진의
05
계산
목적으로
공기
국토교통
렌
예정입니다
응급
금액
나아가
##가치
주가는
김포
##케어
맞서
해당하는
않는다고
##권과
클라우드
##되었다
성인
때문이라고
##신도시
외교부
유해
상태에서
요구했다
##32
74
##실은
복잡
어려울
##마켓
워크
의존
윈
음주
진행되는
그간
##88
상용
##ᆨ시코
가시
보고서
법원
완공
내놔
시민단체
지원한다
만날
##간담
가전
##석이
처음이다
강화하고
감시
출근
측정
##일로
영업이익은
생긴
주간
기업은
파리
양산
##계에
보여주는
교수가
동영
금강
섭취
##문에
간단
수백
이사회
벌여
포털
##역에서
불거
핀
뒤를
최저임금
1시
##30분
화려
펜
터키
##비율
##것을
투쟁
둔화
8개
거짓
중요하다
##당국은
##공사는
##인력
갈수록
##비즈
기업에
자신을
검토하고
앵커멘트
그냥
벌금
몽
얻고
김진
밥
후보자
눈이
높아지고
출산
통해서
##터를
2014
##재로
미군
매출은
면세
장착
03
비교해
묵
신분
실태
협상을
모두가
##합의
맹
수색
해제
##저축
항의
허가
##공헌
목소리가
이슬
흘러
##인데요
있었다고
예금
##님이
곧바로
김씨는
정부에
수업
감축
발생했다
입원
##컷
풀어
##참여
입은
##그룹은
도널드
한마
공개했다
##정당
##고는
##수원
진상
여성의
1심
한국을
메인
재배
##인권
군은
납부
낮추
단축
##세의
기후
차이
##힌다
라고
##른다
훌
##대전
전무
확대해
##인치
선진국
가졌다
열심히
떼
동료
시리아
##구나
화제
구청
##경찰청
##만6
꼼
유족
잘못된
##밭
행정부
진화
환경을
잡고
환자가
##실로
평생
곳에
##유통
수험
고수
##부채
강화를
재벌
250
살인
불이
상하이
전형
무관
##있
화성
잠시
박사
##대사
기재
수혜
좋지
외무
##류가
##2천
때도
##방안을
전파
전체의
##이기도
##터테인
가수
높이는
소송을
능력을
고성
종사
24시간
장면
평택
밟
개장
89
쥐
1회
마치고
##세다
메모
##억5
4천
어렵다
서울의
현재의
##한테
##타임스
추첨
안전한
195
오염
##공정
분석한
필요하다는
오피스텔
불구속
붕괴
완벽
이민
소녀
태국
이용하는
##위와
순이익
맞이
김상
##얀
추모
의혹이
정식
98
높였다
##팡
순으로
내놓은
콘텐츠를
사업의
태양광
3년간
##스포츠
포럼
이스라엘
##점의
승리
##과학기술
메시지를
쇼핑몰
인지
명절
86
개선을
일정을
추진하는
시공
##수지
87
가르
주어
대량
##간에
과제
##ᆯ리는
신선
예상되는
##나갈
매력
5년간
이미지를
전기차
신청을
시군
##층의
##부로
리더십
멤버
갖추고
심화
고객의
기업을
##하자는
부적
시정
##협정
투자자
게재
저렴한
으
##화문
맞은
있으
##회담을
##클럽
##근로
##고객
##해지고
순매도
집을
영하
어린이집
라디오
총리가
엘
상관
측이
##팀이
최악
판정을
친박
##소시
먹는
소외
누리꾼
권력
뚜려
풍부한
검사를
40대
인사를
일이다
맡고
##스티벌
##학습
쓰레
비율이
배달
##민주연합
제품의
##름이
방문한
예정인
##서와
별도로
지방자치단체
북한에
##인에게
달한다
매주
거래되고
클린
엔진
촉진
1개
##경찰서는
82
마련해
충족
근로자
##도에서
물리
포착
##보장
01
##시안
대상이
100만
얻을
방식을
##신용
열려
가능성은
최순
##르지
##뉴스24
충분한
엘리
##부담
출판
##선수
사전에
서버
##들로부터
이건
정규직
조국
입장이다
##협상
노트
증가하고
입건
##방향
부분을
##하려고
##감사
양도
##측의
이시간
입고
감염증
한국이
책을
생각하는
주행
현상이
생각한다
미국에서
와이
중국과
건강한
##수술
실시간으로
감정
나타난
정밀
승진
검찰의
인생
상가
##뇌
##스에서
##요금
텐
김해
강연
##펜
##법으로
##지역의
실질적인
운항
부부
시술
##바다
적용해
금리인
##기까지
먹고
파워
걸려
경주
##산업의
넷
방향을
새해
나선다
##연맹
따뜻한
메르스
2명
검거
지역은
선보인
점이다
원의
보도합니다
##엑스
별도의
담보
##허가
73
##란히
위안부
사람들의
서류
##호는
##56
발의
제출한
송파
##나요
분석이다
##비로
##일의
곽
옷
##쾌
##43
##전과
이번이
목표를
이영
일자리를
간부
강세를
##실적
속도를
##놀이
조속
후반
담겨
##치로
살고
##결제
않습니다
##임대
사회공헌
서부
##리며
##57
##사들의
생각해
폭력
##하라는
##리오
400
파업
이유를
플라
30여
멕시코
유지하고
##식과
##당에
전부터
##감은
##쪽으로
몰아
이게
목수
##리도
수학
처분
##선으로
말해
이익을
##칸
쓰고
대체로
수여
채무
참여를
교통사고
엇
얘기를
##채권
부지
확대를
공정거래
초래
기술이
##륜
##단으로
지원하고
문화재
딱
점은
유튜브
##선물
##교육을
때문입니다
사회복지
생생한
분노
물량
깨끄
차관
득
구체적으로
중대
##부품
##미널
아니면
순천
학생들의
있는데요
##미사일
97
##용으로
진행되고
모습이다
착공
##화하는
우려를
적정
깜
빅데이터
##원들이
##코로나19
여러분
여성이
감안하면
단순히
대안
비율
소개했다
제시한
##겐
##눈
100여
##겠지만
인턴
주지
단행
아직도
돌아가
우리나라의
##나마
##인들은
##확인
보육
물을
눈을
일고
기관은
##역이
##해졌다
일주일
홀
##대응
다수
빗
##정책을
응원
##와는
##58
##미국
도는
초고
##98
인민
균형
추경
안심
기록하며
지지를
##었으며
했다는
적절한
##전으로
##소속
총장
##질의
가공
##시청
##한데
예를
71
원래
쪽으로
##드가
##유로
집값
##공연
나서고
정무
##66
##렁
지분을
않는다는
남해
공인
##1천
대비해
세상에
받아들이
다이어
달아
##성도
최초의
힘이
급여
##탐
재활
##자본
맞게
2주
사내
해군
시의
##락을
귀국
시민들이
격려
클럽
신체
창립
##추행
이모
##사회의
수준에
##국인
##경제를
조세
##평을
##마크
본회의
아니고
농림
뷰
##이터
항목
어울
동시
##치에
비중은
추적
파괴
##회로
콘서
##사례
##간다
현장에
사람들
연주
매출을
방법으로
케이블
02
##금으로
##상환
##위원장이
매체
극대화
##발을
분야에
대표와
해수
데이터를
위탁
봐야
회의에서
용의
1일부터
##검찰
테이
##졌다고
건강보험
영상을
되었다
##수한
고객에게
협의를
문자
##재정
부회장
##여서
##00만원을
방어
소화
##역에
이때
흐름을
##룩
지역사회
핵실험
정유
최소한
고속
가해
이어지는
##껏
당국은
론
것이며
으로
##3천
스페인
##늦
이상으로
무죄
진행됐다
##즈를
##스러
##위원은
않다는
층
결코
개의
사흘
그쳤다
##네요
##대교
##물에
##대행
##전시
이르면
##띠
##료로
##내용
##출을
##77
다행
##길이
시점
##청문
유형
아웃
##심한
마련했다
이성
##왼쪽
강남구
##곽
##랍
머리
##집을
세미나
축하
이슬람
널
##잖
중장기
2016
시작해
##ᆸ션
철저한
호응
연극
##계는
부분에
##소재
주목된다
정치권
패널
편안
위기를
아닐
사랑을
포함된
주민들이
모니터링
주장이
강행
##하기는
04
##분쯤
##타민
##비와
새정치민주연합
진행될
##반기에
연내
##폭을
당기
##금의
경제의
전략적
규모를
들어갔다
항소
업무협
경기가
광화문
##방이
초중
3조
##대구
노선
가이드
선정됐다
3배
주장을
골드
##잠
무르
두려
사용한
4만
##하였다
##담보
분당
국가의
##님의
사용해
맡은
##금속
두드
마시
스카
고향
주민들의
##유럽
수리
않을까
세상
공익
이혼
박종
좁
없지만
##들과의
##스키
##고용
한경
철거
아무런
목포
관람객
엄청난
##42
가격에
지목
높았다
밀려
##대회를
기온이
야외
병행
나아
내비
##피아
차원의
충전
##자이너
##순위
부시
수영
정황
스피
일환으로
투기
높이기
왼쪽
학술
##땅
기사는
면제
##이용
역사를
##이었던
96
숙박
무산
공통
애플리
##탄을
부드
고등학교
##찾
분석이
같습니다
##소방
##인증
수익성
것인지
##주와
더해
##판에
가능할
플래
박원
##허브
##퀴
##식의
것인가
연설
실시한다
대표이
완전
110
확대할
##클릭
본인
##사용
##계올림픽
사용자
##위원회에
대단
##우스
##화하고
##동기
홈쇼핑
경비
##우리
##료는
선보였다
스트레
현대중공업
사우디
50대
운전자
부분은
##곳을
##곳에
##국장
##설명
##전형
##통을
정지
신호
##복을
업체가
##마케
##조트
과도한
내년부터
비중을
회사가
가슴
##네트워크
차별화된
##53
이전에
##지역에
##ᆯ런
현장을
##시키기
추산
안산
##우리당
국회에
유플러스
신중
83
영입
일관
영남
사태가
##가와
작품을
실정
치열한
연봉
철회
방침을
동네
거둬
##과정에서
##당과
하더라도
##ᆶ고
게다가
벌써
뒷받
이들을
발표된
조심
마음이
농민
성향
130
서명
수험생
박영
제로
미래에셋
높일
##박람
인적
##신한
방위
##시스템을
유명한
##신은
논의를
##바른
이하의
최순실
##느냐고
벨
편입
사이에서
##정지
그러니까
문학
중기
뜨거운
조사하고
##플루
만남
문화예술
##기술을
##터테인먼트
알리
##000명
##스틱
접어
##정비
##유치
진행하는
내지
복원
기업으로
##수입
낮춰
운송
##쩍
##본부장
진정한
##멘텀
예정된
싼
엄격
폭으로
방해
##급여
문화를
덮
소리
조회
횡령
##내기
훔
차량을
자제
##앱
무더
##친다
엑스
##로의
둘째
게임을
##4천
기소된
배려
##일본
상상
진행했다
##100
##잡고
만들었다
튀
##밀한
대장
##장치
##금리를
겹
군산
이노
##축제
로스
국고
운동을
찾을
##에이
##화한
집에
이지
확대하고
06
의장은
하여
스크
투자가
금리를
사건의
살펴보면
기여할
상태로
없도록
면역
스타트업
수사에
##업계에
##감과
잠정
##차이즈
존중
3억
자리에
형태의
격리
대대
달했다
됐다며
##침을
##듯이
괘
##음악
중소형
역량
베스트
오름
가야
##예방
결과는
##었으나
현대자동차
행사에
조명
##집니다
제외하고
받아들여
또다시
##어져
증상이
마약
3명
##산화
##시각
짧은
즐기는
##타워
##하셔
##데미
##공학
막을
##씨에게
##받습니다
아빠
##르기
##분기에
경쟁이
꿈을
마찬가지로
함께하는
재발
조용
대표이사
자발
의약품
##배를
헬스
119
대표를
조합원
최고경영
##했다가
중국에서
능력
##경남
수렴
##같이
의식
고객을
##차량
##구로
그렇지
위원장이
##연한
억제
국내에
걸어
##리그
##군을
##즈는
탓에
뼈
##경이
81
##52
아버지
시달
취급
##퍼런
정도가
가질
##예정
시대를
틈
개인의
인테
계절
가치가
##67
##달아
건네
##계약을
현안
체크
갖는
본사
휩
세종시
돋
##세와
시민들의
##순이익
기간에
닭
개척
아이템
##줬다
##께서
##그룹의
이메
##로가
개최한다
대표하는
##지니어
##폭력
##국으로
팽
싶다
같아
##정상회담
가고
수강
##68
별도
결정했다
인사청문
모르는
집에서
농산물
출동
빌려
담고
매월
공연을
임기
##자료를
업그
##전문가
##랜차이즈
인기가
협약을
##경은
부천
##트와
표명
전화를
##교회
##교사
##트에
무장
07
종로구
식으로
있었지만
중이라고
됐습니다
##드의
##등포
업데이
지적이다
##중심
##덜
수소
##주행
기아차
개성공단
이어졌다
##전에서
지주
##머스
북부
함유
공개된
구미
##ᆯ리티
경험이
##운동을
보도에
꼽았다
외국인이
김수
##광역
유일한
가중
실시하고
##번에
당의
##노미
##정과
김민
콩
방안도
서울중앙지검
##보안
그에
##고한
##정으로
진행한
받아야
나의
말한
신축
사실은
직원들이
아끼
##말을
왜곡
어렵다고
##틱
프로모
아이들이
무소속
##이었습니다
##54
##션은
은퇴
##야말로
타임
열린우리당
이은
행복한
오리
입장이
위기에
오토
비리
##방안
##규제
##촬영
유의
고등
##ᆸ다
남성이
묻는
위험이
공개한
94
감면
##당국
##딜
신뢰를
##하겠습니다
##파일
합의를
아무리
제보받습니다
규제를
##차로
거죠
중국에
이수
##낸셜
위성
이로써
30년
빙
연다
산불
1호
##장도
빠진
뒷받침
##인사
##스피
놀이
증언
##수출
##방지
선포
사장이
6자
열렸다
##늦게
부산시
환율은
사례를
##실과
그만
교육부
한글
김지
유망
사고로
씨와
알려졌습니다
마련한
샌
민주노총
돌아서
몸을
마켓
주석
##물산
배터리
초점을
정책에
보존
##레이시아
##자금을
앉아
##리다
기름
의회
##맛
작동
세계에서
결정할
마이크로
독도
독특
호흡
방한
마련됐다
모델을
경찰청
지역경제
##구와
벌인
행사가
인접
##하더라도
자영업
##뒤
##ᅢᆼ킹
추진해
##병을
분위기가
애니
휴가
삼성전자가
##민의
스키
않기
발달
##000만달러
아니라고
이것이
기자간담
최우수
중요하다고
누군
끊임
강도
선사
비핵화
신용등급
관리를
매출액은
바랍니다
##군에
부정적인
한국에서
살려
소식이
전당
설치된
##거래일
##개편
2위
가입자
재직
그려
##회관
##그러
##프레
입사
신년
가짜
7년
##건은
유아
2시간
##교류
국민들의
##쓸
생각한다고
동작
비율은
얘기다
10명
떨어지는
##정보를
성공적으로
##진과
최악의
선보일
##디자인
간호
##계좌
##시마
##팬
##서로
##덤
이번에는
논의가
주기
##기관의
논란을
램
##다니
협업
지속될
세탁
곳에서
치소
퀴
일본은
##밤
08
##독교
선착
원인을
##연합회
의원을
유승
마포
속도
중에서
##장인
미국에
전격
원천
장중
관여
펀
앞장서
영장
포함돼
문제의
##목으로
포장
##금과
##들이다
명을
부패
대형마트
동일한
##사령
##양을
전용면적
체감
줄일
##면으로
조사에
##체제
6년
대피
의류
##모를
##차별
프로젝
준비를
아는
09
많고
검출
자원봉사
원자력
##디아
출자
설명했습니다
일본이
##작업을
내릴
장례
햇
인명
##등을
##2000
도약
수천
##픔
##냉
다문화
국민들이
탈북
그래도
전국의
임신
중학교
##꼼
9개
##하겠다며
##사업의
##렀다
치매
않았
##사업은
알게
연동
해킹
##운전
전직
행위를
경찰의
공간을
요구를
판매를
확인하고
되기
듯한
##히고
##공무원
한국전
영등포
##콘텐츠
##혁명
측근
소규모
요리
했다며
93
일하는
엉
##룬
##주도
뒤에
사회의
늘어나고
셰
있을까
##하다가
92
유전
사고를
판매한다
포트
##나라는
##유산
##성한
##연구원은
##오를
연관
일제히
디자이너
내내
배정
비타민
계획입니다
180
##사들은
##구에서
명시
기업과
##윈
##지수가
유가족
도서
말하는
그것이
일부를
##됐
##높
그쳐
##만원에
제품이
수면
##적한
이어져
발간
협박
것이라
진영
긍정적
##통합당
한국당
요청했다
##유예
##공제
기각
기능이
유동성
어르
웰
결론
정상화
##하우스
재테크
환자의
##99
판매하는
##건설은
중견
수습
괜
정례
##500
마련된
##기소
비트
세제
냉장
##마스
깊이
##체육관광
##업체의
이뤄졌다
면적
당연히
얻어
##법과
##광고
##브랜드
만나는
증가할
동결
팩
##하지는
이기
세계적으로
뭔
보좌
##된다며
##기계
##원한
소식에
강화해
난민
칭
1백
농가
별다른
밝히고
##냐고
열릴
않았지만
##생활을
##기아
##청소년
노력하겠다고
유저
그러면
목숨을
직장인
위주로
##경찰서
공기업
김대중
발표할
91
대목
관계가
모멘텀
기대를
유럽연합
사후
##호한
##51
전자는
측의
그게
녹취
주유
판매가
공원
입니다
야구
진출을
부장판
##포인트0
덕분에
##예요
##편의
##화해
항공기
##따라
성명을
세금을
고마
후보로
경제성장
현상
대통령에게
찾기
승용차
야권
##외교
삼성전자의
직원이
현재는
와인
벼
지내
뇌물
성명
어깨
원인이
기관이
안전을
대다
##전망
비례대표
저가
바람이
##하니
국세청
그렇다면
자료사진
남겨
보고서를
신도시
##만여
이뤄지지
##찮
소비자들의
급격히
성매매
##궐
말레이시아
5000
사건에
에스
말이다
기반을
반려
집회
육군
##데다
##교육청은
헌법재판
목격
십
실효
아시아나
의원과
##비의
국민을
제기되고
신형
어렵다는
##실한
영향이
발주
인근에
않아도
##배상
##준표
늘어나는
객관
##위원회에서
부근
##앉
재개발
##법의
##ᆨ스는
세포
발견된
이어가
4대강
바른미래
먹을
소장
##페이스
심한
##두에
프랜차이즈
이태
##승을
쇄
##프로그램
청와대는
크지
근육
오프라인
국무총리
요구하고
대출을
##대학원
영동
기자들의
동맹
##변화
회수
경쟁을
##뷔
고조
종이
##사항을
##ᆸ고
칠
교섭
##창조
클린턴
캡처
들이
지사는
##호텔에서
모으고
성추행
자금이
유효
전부
##아시아경제
##설계
얻은
##감에
물어
##체에
높다고
1년간
나를
총장은
신동
##전용
제품에
##발표
업계에
사랑의
해안
##농업
정통
디지털타임스
중점
##아트
자연스럽게
##제도를
하락세를
추억
지난해보다
##풀이
노력이
##부에서
주목을
금융위
나타내고
가서
창작
##라면서
청소
보여주
대변인
심사를
꼽힌다
##됐다며
1개월
압도
구성해
잦
크로
이외에도
사립
##쁨
##64
팔아
##어날
##학년도
외국인은
지나치게
스탠
흡수
곳으로
##들에게는
##지대
3000
정책이
지낸
개념
유지할
##구매
연세대
접목
##가입
감염증코로나19
가게
다루
##함과
건너
언어
문제와
##었다는
##사장
조사에서
주제
##작업
##정부가
##행이
쳐
저작
##전지
침몰
대답
의도
생활을
줄이고
비용이
근처
제품으로
없기
분산
##공사가
##해운
##문은
##음에
저축은행
##관으로
배송
##계열
과태
##카데미
공적
해결을
거래가
미뤄
까다
반대하는
드라이
강요
셋
사안
기념해
이용자
북측
그를
금속
대립
음식을
홈페이지를
차를
야간
##블릿
박람
생각하고
##이스
##렛
없었던
소매
유용
삭제
##방에
부회장은
##않
위생
유상
##팀을
첫날
##밀리
이병
연료
서울에서
이었다
하던
사업자
##금액
산학
꺾
남양
공사를
준비하고
##무기
유권
줄이
##제조
역임
과정에
순환
정해
지원해
종전
대상은
김병
빠르고
##78
운영을
화이트
지금도
##가락
##범위
줄고
##명이다
##인천
별로
강동
##지다
당뇨
##스트는
산업의
##니저
중국인
##격이
##마케팅
##체계를
##처는
##의약품
##스닥
안드로
그럼에도
생각합니다
이른다
있었습니다
자가
##선에서
##기한
이어가고
기업인
사진은
명칭
인상을
지원이
학원
고도
가능하며
감안해
##절한
않았습니다
맞지
경력
오를
##세종
주변에
마지막으로
상황은
식사
##시간을
##냐는
테크
강화하는
내년도
비공개
##버린
##캠프
##마이뉴스
독점
반대로
저항
황금
방안이
##장애인
육아
않지만
원주
알리는
나타나고
##위험
출국
전까지
무조건
특혜
연구를
##너지를
##되기도
##동물
닫
과세
시기에
모은
애초
##층이
심장
박상
희망을
크루
다섯
배상
겪는
나타내
##절을
배럴
##밖
계획이
연습
화려한
늘어났다
##되도록
일각에서는
예외
듀
회사채
6천
윤리
갈등을
선을
원장
측에
2명이
받았다고
였다
꼼꼼
앙
섞
털어
재생
동향
극단
찾아가
벌였다
아이뉴스24
확진자가
##화할
끝내
##보수
중국을
연대
애널리스트는
부서
##랩
지적도
노동자
정확히
있었고
흑자
##반을
##주인
##풍이
600
동생
##ᆷ돌
향한
차익
여부에
확진자
##사람
들어와
올바른
관내
무인
끝까지
쉬운
검은
좌우
아이를
##검토
자칫
서구
자택
넣어
선별
##직한
2개월
판단했다
5대
여파로
하이브리
강화할
부정적
쿠키
##숍
어디서
드리
자유롭게
##과정을
도출
##줘야
시가총액
증시가
아직까지
이례
육박
주당
##기온은
방통
사항은
민주당이
리모
간접
국민은행
되도록
대구경북
변호사는
라이프
로드
가능해
멋
장관의
낙찰
세계적
생기
##정부의
널리
다하겠다고
투입해
정작
차지하고
들어갈
##층을
우울
봤다
##맥스
쫓
100만원
##ᆷ새
다우
##보유
웅
쉽고
남북관계
##자문
투자증권
도덕
있어요
##메리
##념을
기자들과
한국은행
병원으로
동북아
##재는
심지어
한창
질의
개정안을
받기
느낀
비싼
박원순
선착순
##만은
연준
재해
선제
응시
##화될
##놓은
##진핑
지점
경기를
밀어
페스티벌
##실히
성공한
즐거
끌었다
막아
조치가
##스카
확보한
주장하고
구상
##배우
전반에
해주
##잖아요
##00만달러
##트라
##ᆷ피
반영해
앞세
##레이션
##소한
신고를
##지요
##국에서
떨
강조했습니다
개발해
연수
여기서
제네
불황
##75
시설을
##쌀
##소기업
갚
##크라
소년
##61
컨소시
구속영장을
지명
단순한
것이라면서
##교수
##롯데
##셔널
정관
있으니
시행령
안드로이드
시세
##광주
치솟
말로
거친
애플리케이션
분들이
##표준
갈등이
##둑
파이낸셜
예정이며
##졌고
##통상자원
분할
출시한
수준이
대상을
유로존
사모
나서는
##해보
금융위기
3층
교회
##무성
##스테이
전액
장악
업계의
##야구
블로그
프로세
생산하는
##재난
변화에
##국회
싫
##밀히
대우조선
##주간
깜짝
##피탈
때가
##헬
입시
요인
##앗
합작
체결했다
수준인
주장하는
기록을
##일과
크다고
다짐
##체로
미중
##져야
커질
업그레이드
홍준표
##63
손실
##세트
박물
대부분이
마련할
올해부터
팝
뒤늦게
##조달
아니라는
맛을
가맹점
명령
##수기
연말까지
마크
김형
##로로
둬
쌍용
사건은
서비스가
거치
양적
고유
##사무소
특화
합리적인
프로젝트를
##의회
레드
##떠
방법이
##나이
##타이어
수익률을
중개
타결
흡연
증명
##ᆻ죠
의원들이
##산의
전수
##가정
면담
일간
부활
##행사를
##부동산
##총장
##효율
슬로
확보를
조언했다
접한
##요타
##제철
중반
공조
예상보다
12시
해마다
주시
이사장
독특한
세계일보
전인
##곳의
체제
##밸리
금리가
미흡
곳이다
춤
##협회는
해고
##키스탄
선정해
##염이
##사법
서비스는
대박
##망이
파격
40여
방송통신
들어가는
##국장은
권리
##테이너
유일하게
##플레
입장에서
거래일
불어
탁월
암호
사로
##늄
크고
518
3분의
재판에
뒤집
피의자
##드린
셔
개시
물질
발생해
그들의
##담보대출
두드러
학생들은
곳곳에
##메달
##컷뉴스
140
논의할
4개월
4조
##5천
##차에
##된다면
##처가
현직
##정도
사태를
펼치고
현역
북한을
활동에
자산운용
있을지
##부대
##수급
것인
##집행
##그룹이
##79
맑
##언론
언론에
##떼
##박스
들려
##조한
##곳이
보이며
하자
태블릿
그룹의
수출이
##게는
##깔
편의점
없게
##치기
##덩
법조
##학회
실용
입점
##면에서
발령
방북
원가
##제품을
용역
고시
##서울연합뉴스
진로
공산
50여
뿐이다
##물과
##동에서
뷰티
##끼리
빌딩
재고
구독하세요
필요성을
##륭
시대에
##끈
다음날
##미가
선전
삼성물산
연일
브레
정도다
턱
##시설이
##퍼스
194
##업체가
##달라는
싶어
사람들을
둘러싸
##박한
노트북
합류
##전기
연초
도모
##감도
그럴
조항
##설이
소상공인
플러스
앞당
보복
##오늘
3당
##보조
##완화
사유
어려움이
원격
##학적
##62
줄이는
##비에
만성
##튜디오
제기한
판결을
띠
점유율
##서치
경제에
##해주세요
##형으로
##해지는
보지
##대통령
##십니까
##로도
문화체육관광
수사가
삼아
캘리
지속가능
지역구
책정
돕는
##자격
당한
해임
어르신
한우
막대한
집중적으로
충격을
분양가
수술을
모범
총리의
하나인
##닐
##에게도
##환자
12개
뒷이
기증
중립
도민
손실을
이경
시민의
하드
##교안
약세를
성폭력
짐
올라가
점에
식당
##넣
사업으로
대결
중에는
호조
혈액
싶다고
정동
개정안
제공해
유치원
##태평양
전송
리얼
##처벌
단위
유연
미국을
리그
환율이
성사
어렵게
아우
일어난
이송
범위
후에
스웨
없었다고
##이의
경기침
쿠폰
가능성에
##앵커
국가가
박성
점수를
신문은
강서
무릎
수차례
나오지
##ᆺ하게
11개
무대
폭염
논쟁
쓰레기
오랫
맺고
우리나라는
김치
유지했다
무한
##숙한
당기순이익
##동조합
##ᆯ범
인천공항
배포금지관련기사
##점유
##아버
나도
구직
안양
올해도
응모
인력을
지리
##페라
##구청장
자료에
##진에
때부터
증가하는
계속해서
갖게
모았다
동남아
몫
부디
지향
불편을
개최했다
출시했다
기자의
걸린
프린
인건
어떠한
산업통상자원
##으로도
협상이
관절
지닌
거세
##지역에서
전국에
약간
이내에
다르다
회장과
선두
선택할
나뉘
기사제보
##투어
인간의
회사를
이어진
##봄
서초구
건강을
자진
때보다
##과장은
##포니아
백악관
6자회담
##돌아
송도
제기됐다
농어
이씨는
##구성
코레
손님
부양
가려
##린이
굿
국민에게
외면
##사업이
조종
만들어진
실망
부착
##자산운용
직면
시간에
성형
##선과
입지
제안했다
확인한
장병
##였다고
국회가
##실장은
##기본
뛰어나
##전남
나쁜
내놨다
결론을
정세
기존에
##해달라고
조금씩
상시
##폴
수치다
##녹
지불
캠페인을
차가
##여대
유포
임직
기대감이
##놀
관찰
##블록
##연의
##박물관
장점
주민들은
유료
참여했다
준수
##목적
##1일
##플레이션
##값이
멘토
대응을
오랫동안
이사장은
비싸
##살을
##할지
기원
고가
##하되
장소
이상인
견인
외신
##뉴얼
##억8
##센티브
교수의
들어선
##법원
패러
짚
뒷이야기
최대의
모델로
##관리를
##쇠
에어컨
##협약
여겨
지금의
5배
발병
보다는
챙겨
전산
소비자가
노조는
의혹에
이후에
아니지만
명백
느낌을
회장을
박지
시나
안동
##판이
마리
누릴
##00억
##라운드
취재파일
불만을
브랜드를
2년간
##석유
##캔
패턴
상태를
7천
전달했다
##청의
##우기
뿌리
성장할
##델링
때문으로
기자회견에서
첫째
상속
나가는
구성돼
캠페인
영국의
서서
이윤
##마를
##대책을
##급식
참사
감지
전반적인
전망을
찾고
식약
##필요
부문에서
##센터가
생길
곳곳에서
성공했다
포괄
안정을
##ᆨ터
##카페
##풍을
금강산
관할
지원에
그것은
해결할
입력
거래소
##행위를
##만화
빨라
##조치를
##툰
경품
강세
한다면
##이야기
업체는
획기
##었기
크레
##아동
적합한
돼야
스위스
방송을
조사결과
타격을
설치해
느끼는
남한
합쳐
복구
불투
적응
의원들은
배후
##에서부터
다수의
출시된
비트코
확보하고
옹
보험료
##낸다
한양
도입을
이다
##르크
##톱
관측이
급속
##비중
##진단
고용노동
한마디
마라
기기
##듈
따져
경우에
원으로
유가증권
발전에
##활성
선보이는
행태
기간을
분석해
성분
요인이
음료
하이브리드
앤
##받지
돋보
투자자들의
고객들이
당국이
내각
서울시장
기상청은
통일부
신한금융
기업들은
은행의
유사한
##홀딩
운영한다
##ᆷ과
주류
##곳에서
도달
생방송
전년대비
##메이션
##차의
않았던
##호의
서울과
##해가
일산
##ᆷ보
위원장의
중소기업의
신장
능력이
유전자
##기업이
나타날
##통제
공중
구로
자유무역
##르트
힐
넓은
고기
공군
김승
##평형
드러난
요구한
데뷔
저소득층
매장을
교황
의정부
##둘러
도박
아트
내륙
국제사회
연루
믿고
이끄
내년에
##본부장은
##언스
출하
출연해
태어나
지능
##토론
##심으로
사찰
기독교
한류
지역으로
##장관은
유관
##국대
##파가
속도가
그것을
##포를
##모임
전망입니다
##붕
전국에서
소비자들이
기사를
원칙을
연평균
##노트
성장률
포트폴리
4명
##역과
##성으로
10년간
전년동기
##고도
즐겨
##5일
전문가들의
제조업체
청산
손쉬
섬유
##체는
한반
르노
부사장은
기록해
참가한
방침이라고
취재현장
##됐을
추진한다
정의당
##정보통신
##오른
##그리
그랜드
##받기
추정되는
팀장은
##연이
치킨
자국
늘리
외식
##투쟁
관해
김무성
규정을
말씀을
장마
범행을
블룸
##강의
경제부
이후에도
##했었다
박사는
투자하는
실시할
모터
간담회를
##실의
근거로
##3000
교도
재단
같아요
바란다
160
도움
역사적
우대
총재는
분석을
기준이
##매출
대한민국의
대중교통
##통일
한수
##코노미
##역으로
아이가
본인이
대학교
##저널
##방위
했으나
씨에게
체납
가족이
##제작
부합
시키
##기관인
##거리를
##매도
이집
이석
투자의견
방법은
오늘은
납치
코너
##기간을
##들인
##바지
전국적으로
##신탁
사이의
기관의
바람에
판단을
인센티브
##진영
차량이
##합병
##팀장은
업체들이
요소
##크를
##스바
유예
##근무
조현
이유다
영업이익이
##홍보
플랜
금융투자
높고
김연
짙
전문기업
진단했다
다음은
여유
##툼
##평등
타이어
사회에
부자
3명이
오르는
김정일
개봉
혁신을
##오염
##헨
##권으로
##문제를
물량이
이인
##공화
물품
##센트
황교안
사람들에게
파악하고
작업이
진주
10분
##부족
##화되고
보조금
대표적
덩
지상파
행동을
한계가
각별
일종의
##매를
이끄는
드러내
얼굴을
전했습니다
언급했다
자리매
##청구
2회
허리
카드를
##한을
신기
기간이
골목
##감으로
대륙
특강
어른
이름으로
야생
##하신
판교
초등학생
##연히
##학기
경향
##당국이
패키지
주부
##업계의
최고치를
##ᆯ릭
논문
업무협약을
공화당
##홀에서
소액
##문화재
원에
##되거나
읍
##도어
노르
캘리포니아
1명이
노하우를
흰
감상
술을
올리는
##000만원을
시너지
영유
##조작
정상회의
며칠
발표를
되는데
스크린
구름
평가다
쓰러
##센터에
규모다
뛰어넘
원자재
개관
보고서는
만만
손상
백신
월급
행정안전
강력히
많지
##이었다고
직접적인
두번째
달러를
1999년
이렇
##낭
##덜란드
프라이
보태
출간
##팽
##은행과
말할
##아웃
홀로
후보자는
장성
##고에
##중개
5명
정원
조율
조건을
영광
##균형
예보
2013
##위안
불공정
무리
그렇다고
유죄
소중한
롯데백화점
인증을
훌륭
##매수
맑은
불을
##이로
보여준
청탁
장기간
올리고
##쪽에
날씨가
컨테이너
##기관이
과징
##아라
##지니어링
민정
피아
평가가
파티
내야
직원들의
손해배상
구축을
콘셉
비전
200여
하나가
연계해
##되지만
승인을
일으켜
좋아하는
##도서관
##겠고
##ᆻ는가
##차익
##회사의
심판
의문
아세
##진보
블룸버그
8천
##주차
##국내
넥슨
##님은
그래픽
##5000
여름철
표창
떡
오르고
수송
편이다
##학원
증정한다
##멍
입장에서는
##했다면서
에코
신속한
않으
자율주행
##숭
포르
구성됐다
사무실
일괄
자동으로
##게이
자리매김
몸에
##사업으로
것보다
상영
않았고
상승을
자체를
칸
하나금융
상정
##72
예상됩니다
이야기가
##재료
2단계
되찾
텔레콤은
예전
상품은
##에서만
보강
##혜택
민주당의
##세한
현대기아
청와대가
##회관에서
프랑
마이너스
나가겠다고
이뤄지고
않았다는
후배
소니
타당
양해
높아진
사람에게
##마자
연체
##시오
법제
갈아
노동당
##동향
작용할
다채
새누리당은
##자들과
그나마
폭로
인테리어
주문했다
제품이다
거주하는
앞으로는
시작됐다
산정
##밴드
##벤션
즐겁
태도를
여성은
어ᄍ
선배
디자인을
시진핑
원화
적어도
쌓아
찾지
간에
탈당
종류
단말기
머리를
맞물
말에
일찍
##군요
와서
반영한
##사스
##까지도
숫자
세운
유리한
워낙
##우주
조리
외국계
알파
공급하는
지수가
않겠
도서관
5억
##오롱
흔히
곳을
재료
무력
끊임없이
##동은
우호
##색을
롯데마트
##관계가
분열
나노
움직임을
##정신
정규
저하
휘발
특성을
1월부터
본다고
과장
사물
원고
##씨에
##텍스
동영상을
##났다
했을
확립
##건설이
예상하고
##렸습니다
호응을
신라
##방의
##빌딩
잠실
진실
걸릴
경유
##권도
있었는데
##보자
##축구
발송
기금
점수
##결은
정한
미치지
헤어
##로서는
찾았다
##스토랑
##품질
인용해
한다면서
번호
동서
##려야
동대문
##원자
인식을
##테크노
나타나는
좋을
선호하는
줄기
내리고
양자
국가안보
##샵
무엇이
들어오
하천
##셰
##지원을
마주
옳
##청사
일선
아마존
재보
##하기에
소수
국경
성공적인
##기관에
##결정
국무총
구매할
##군과
씩
##혐의
고려할
##속에
##즈의
밝혀졌다
꾸준한
밖으로
##사실
요구에
주한미
외국인의
드러냈다
설립된
##프라이
약속을
구조를
올해로
수시로
꿈꾸
정책의
출전
##달러를
천안함
##나와
##위원장을
집행유예
체류
사용하고
초코
공고
빚어
선관
출신의
전반적으로
종목은
##방에서
지역주민
체결했다고
부딪
큐
박차를
밀집
토요일
과잉
관점에서
##스턴
전분기
일이라고
중복
##초등학교
##프는
##패를
대부
##ᆯ린
구조조
공장을
파주
##소리
##연수
확대하는
꼬집
공시했다
규탄
추첨을
기준금리
부추
외화
##가요
이론
예비후보
구체적
로이터
##남부
보행
##북도
아름다
올릴
탈퇴
운영할
경찰과
악성
추가적인
##생태
특유의
31일까지
보내는
이것은
##보도
##뉴스팀
##지역으로
20만
시기를
유인
##리게
아랍
스웨덴
전교
순이었다
떨어질
련
확보할
염두에
##빵
##라스
##우러
아시아나항공
비교하면
마련하고
탄력
병역
이화
##재해
이하로
결정에
되면서
대의
대치
일반적으로
10만원
투자자들이
##꿈
가상화폐
각국
##서울뉴시스
나중에
말은
정도를
현대차는
법안을
질문을
영웅
고려대
여권
##말까지
홈플러스
##로에
파일
##리즘
1대
잡은
군의
메모리
비상대책
고통을
##견이
광복
잠수
기반의
지사
적용한
신속하게
아산
재능
사진이
앞선
저평가
학생이
깎
불과하다
몰리
방문객
##리콘
고객들의
비판을
위해선
제공된다
판문
증가로
높아졌다
##트랙
##6천
##과세
정몽
병원에서
사람도
경신
한국거래
##여야
다각
회원국
떠난
수를
##드와
##눔
##더라고
진행해
활약
##면이
강북
여행을
민주화
엔터테인먼트
위험을
단백
붉은
항소심
##89
350
제목의
줄이기
프로그램은
상담을
나스닥
시인
##보에
##총생산
##제주
미분양
된다며
신약
##보겠습니다
##그림
##터는
제어
16개
##00원에
대통령에
##쥐
##도까지
반박했다
맥주
강좌
당원
##취를
불필요
개인이
환자는
1998년
##대체
비준
번째로
##ᆫ스
겨냥한
이준
##되어야
개최한다고
반환
맞고
거두
모금
움직임이
##교과
확대될
내리는
드는
양극
##바람
유지하는
##취재
모른
##정부는
네티즌들은
요인으로
높다는
##칙을
##십자
##됐으나
##름을
##설비
학교에
원내대표가
##목이
규명
##환경을
폭탄
한나라당은
##텔레
내놓고
가족과
긍정적으로
##인식
이뤄지는
높아질
분담
광명
잇는
독서
내놓았다
##읽
##동과
##일인
네덜란드
문제점을
스트레스
데는
폴리
##넓
원달러
행사에는
##킷
강조한
기도
규정하고
장르
##청과
##북한
상관없이
책임이
##편을
등산
##낮
금감원
##역사
일치
곁
여신
##였고
포함됐다
냄새
아파트를
옷을
손에
김장
관심과
유승민
대국민
##계와
동행
보면서
신도
운영에
현실을
꾸며
한꺼
헝
제기했다
##마리
##업체에
소비자의
전시회
##했는지
대가
세트
개선에
##생이
##축산
드론
##첨단
##우가
5분
##기간이
위법
동아닷컴
##가구를
하나는
##다이
대학의
돕기
초중고
차이를
##대회에서
##대표는
정보가
기쁘
고문
일에
기술과
##85
공격을
지급하는
유상증
##4000
경제협력
참여하고
정치를
물이
전라
지난해부터
크기
##느라
##합을
사외
##업은
##스바겐
생물
방식의
##몸
이번주
범위를
근본적인
##딘
스타일
모자
가산
재차
선거를
교원
5조
##기부
##크라이나
일본에서
한꺼번에
대책이
않겠다는
신천
인식이
상하
##상품을
##온다
신청할
컸다
해결하기
##엠
자신들의
##력발전
시장점유
바꾸는
##숲
##외과
총선에서
늘리는
##플랜
감찰
지역별
1억원
도중
##브로
결정이
10억
자아
진도
탈출
정부를
멸
1단계
승리를
어우러
위헌
어두
1997년
꼽히는
속속
잡았다
수거
##화재
##출산
##가격이
켜
광고를
##시장과
##74
##산업단지
추후
여야가
출신인
##가구가
갔다
##일랜드
광양
횟
##73
추구하는
합의했다
170
##세권
가이드라인
사건과
사회를
경고했다
사실이다
추출
뒤로
관행
출시를
상황이라고
정권의
##7천
온실
반응이
##형은
생기는
확대에
15년
##길에
택배
필요할
##니지
통행
사로잡
##가격은
엿
작성한
담당하는
중요성을
##1000
##푸드
해체
복용
반전
##지원센터
지지율
##지역을
시대의
##민족
트리
후쿠
중이며
교보
늘리고
위장
##누리
##예금
즐기
많았고
낚
열차
폭락
##종이
멀티미디어
종가
##문에서
순위
학생들에게
중계
뻔
8년
##모집
서울중앙지법
업체의
꺼내
##업체들이
권한을
대여
기대된다고
혹시
이의
##조의
같다며
텍
들어서는
얘기가
본인의
탈락
##편이
부가
예산이
돼지
되며
동원해
했으며
##활동에
##끝
##천군
나름
보냈다
부총리는
리모델링
무효
누리꾼들은
확산되고
##어와
4억
무서
경영권
무엇을
##창출
##회사인
마쳐
취약계층
않겠다고
식물
##위해
##함께
마음으로
파생
파산
메이크
정상회담을
아나
다운로드
위치해
협조를
##부지
##정원
##하자고
증시는
##기업에
##층에
##진흥원
이럴
공정한
인텔
##문화를
지혜
코오롱
##팀의
상무는
기술개발
거대한
##백을
원이
확인된
법을
공영
발표하고
디젤
나라를
##ᆸ니까
과천
배럴당
합의한
장난
주택담보대출
순수
15개
##모씨
여부는
##들었다
올들어
##플리
##증가
이름이
협력해
관계없이
아닙니다
확보해
마음에
##취업
##작가
5개월
통화에서
##시간이
홈페이지에
아이디어를
##채를
의지가
##내에
##어의
정치인
활발한
스페셜
##패드
##동강
##면의
위조
벌어진
병원에
출마를
구독해주세요
##프를
기대할
모의
나타났습니다
관리에
##ᆷ으로써
해양수산
실시한다고
없으며
##본다
##들고
찍은
톡
시위를
##명령
대구시
##화장
대선후보
마땅
캠핑
##증후
수출입
탄소
##미는
톱
##뜰
채워
##포먼
향상을
신혼
소집
##울산
맞춘
신차
카카오톡
속도로
하거나
##95
서울시가
방안에
조각
동구
터치
나라의
##76
##경원
비판이
##삭
##1만
##유지
드림
예상된다고
##비서관
마케팅을
앨범
끌어올리
성장세를
국적
철수
흥미
반성
중시
비디오
연구원
클릭
##님을
1만원
경우에도
편리하게
부의
당국의
겨울철
##개정
낙관
합의가
##터가
억울
콘텐츠허브
적용할
콘서트
##스트리트
이룬
이통
##청사에서
분석된다
제공한
이진
우크라이나
쉐
##긴다
시간은
상습
원산
##드립니다
발생하지
강구
이어갈
과일
걸친
고객들에게
##동맹
정신을
회사에
카톡
엑
기록할
고스
수신
다르게
300여
일반적인
금품을
일요일
가격으로
##투자가
마스크를
190
물론이고
들여다
준비하는
태극
환경부
##지노
##학자
6만
초청해
스테
사각
미친
북한과
좋다고
##도급
이어갔다
메디
비율을
소리를
시스템이
##심은
화제가
청원
거예요
##기자본
##다리
면세점
블록체인
2인
수령
조사가
무대에
실정이다
프리미어
##검사를
굳이
고려하면
이겨
국회를
보여주고
바라는
상태가
대지
민감한
가면
##지출
신재생
조속히
직권
##고와
##일간
##막을
젖
##온라인
나간
챔피
##테러
방송에서
##부부장
실시했다
##효과를
안성
확산을
우려도
##사업자
늦게
우리은행
상회
보편
패스트
연방준비
##시즌
쇠고기
빵
바른미래당
김선
##품이
수확
##이후
##과장
##능력을
##농협
서면
연구결과
개발하고
물건을
안정적으로
관계자들이
김광
클래식
##퍼니
##자로서
##절차
##달러로
손쉽게
성범죄
대행
업체인
개선이
민관
연중
##턱
탄탄
##사한
타입
감독은
못하게
걸고
계속되고
부문의
법원은
부사장
약속했다
번역
항만
전경련
과정이
나흘
재검토
부르
##만족
대응할
프라
올해의
##룰
경찰관
지어
국토부
선행
브랜드로
우량
죽음
국내총생산
##례를
중재
##인포
오마이뉴스
교육감
##변경
언급한
관련해서는
##진료
멀리
많다고
##악한
##호에
날이
푸틴
최경
시신
레스토랑
소홀
##기준을
##리랑
훈련을
영업을
##편집
##귀포
해운대
##만5000
##지역은
크리스마스
##노인
활용하는
##조에
내세워
차질
##메시
7월부터
확실한
증여
##었다며
##상공회의
속초
인천시
유럽의
윈도
양해각
통영
##충격
##얀마
앱을
##아의
새정치연합
국민적
##고의
##과제
##형의
일본에
론칭
짝
아이들의
##만으로도
##큰
##억원에서
바닷
2012
뜻이다
안전성
받으
솔루션을
군사이야기
멈추
논란에
사망자
우리에게
정부에서
##차례에
지정된
##이와
남아이
병원을
30일까지
뭉
여는
시작한다
##주지
주체
##프로그래
내년에는
통화정책
닿
##니스트
닮
##부진
뚜렷한
소위
소독
##ᆻ나
힘들어
시나리오
의원들의
골자로
실시하는
말도
예년
마침
수요를
연구팀은
거대
혜택이
3월부터
호전
기록했다고
##소연
발생하고
금융권
마찬가지다
전임
트럭
빼앗
설명하고
하겠다는
가난
성공을
고의
##과를
메가
관리하는
##원인
##개에
더블
부가가
라이브
수산
교과서
축산
확인해
##가루
##디션
##융합
투자해
대대적인
##및
전년보다
이런일이
##가구로
본부장은
전체를
##쿼
##사진을
성장이
보건복지부
##되던
경남도
확인했다
무용
임용
##민이
해명했다
노력하고
##통이
##질랜드
상공
동성
빠져나
가계부채
처리를
샘
편의를
##지하
위안화
몬
##소장
기온은
선보이고
##나눔
스마트폰을
관악
##겸
시민사회
관련이
계속될
아기
영세
##터미널
##식에는
##퇴근
세입
##산은
활동이
문제도
그들은
세련
농식품
중증
토로
##효과가
나빠
퍼포먼
재활용
학생들을
##달러에
정보기술
주민등록
##시에서
##이게
민정수석
자리잡
지니
제4
##71
800
핸드
좋겠다고
##시고
##역은
다할
해외에서
##즈가
닛
결정한
있었다며
##금리가
코엑스
재현
잃은
##대우
3가지
시작할
700
##림을
연결하는
재미있는
태평양
##모비스
##헤럴드경제
이해할
그걸
고백
확신
후보와
져
복잡한
실물
젊은이
##스런
이뤄진다
노력할
##버리
거래량은
과다
장비를
말하고
수상했다
로비
의원도
##인재
##기간은
조성을
마련을
##체제를
야당의
이들에게
스타버
##구간
##위원회와
##셀러
##여명의
나왔습니다
플로
##워드
여건
다행히
위주의
##시픽
겉
다름
조직을
정확하게
지역이
##인프라
##하기가
##유출
출처
우유
재판을
주파
빈곤
분야를
시켜
##업소
##직자
보여준다
기초자산
덴
##적이라고
표결
개혁을
투자에
캔
썼다
##총회
궤
##소비자
넘어섰다
##퀘
요양
효율적인
효과적으로
거절
설립한
가파
책은
안전하게
종목이
아모
##졌다는
##사원
##물류
초대형
김한
한계
알리고
영향력을
정수
배제할
고개를
그다
나타내는
기준에
##오른쪽
##리에서
적자를
간단한
##주얼
제재를
작업에
잉
프로그램이
현대백화점
과시
청와대에서
퓨
##기관과
##몇
실장은
속에서도
중독
원료
발견됐다
더욱이
##대변
##언을
##ᆸ이
확실히
##감시
숭
##사도
사망한
성능을
국정감
1주일
죄송
저지른
대림
보호를
평년
기다리고
네트워크를
##학규
안녕
##인구
여성을
##신저
##2일
선거에
하셔
권리를
태어난
안고
##이한
공급이
대상에
##치며
주방
반기
들은
자외
##커피
물에
정상적인
13개
폭넓
##샘
1을
중대한
끈다
##미칼
일으킨
선거에서
김일
고스란히
##가며
##디지털
##보상
##교섭
리서치
사령
신조
카드뉴스
##통은
발부
몽골
집회를
건전
못하면
데일리
##시다
수의
급감
나라가
분이
최적의
결승
벤처기업
들을
##탄소
척추
주식형
안팎의
놓은
창조경제
위촉
이현
##나게
예상되고
트래
출생
##석은
기본적으로
평범
청렴
전문의
법인세
막판
유병
한시
내장
##방해
석탄
감안할
장관과
날을
대가로
벌이는
세력
늘면서
꾀
진학
주변의
신청한
밴드
임차
연결해
당정
합성
##보드
소극
제도가
폼
##조사에
##명에서
삼성증권
갑작
답변을
적어
두루
##산에
해경
##수당
기술력을
##나타
사태로
세계의
예정돼
우회
갖는다
##술을
넘치는
제2의
사랑하는
##이미
##치와
##스트라
골든
자민
##물가
출신으로
##팀장
##변호
아니다라고
##캐피탈
지음
장관을
장기적으로
곳도
효과적인
레이저
김명
##비서
30만
부진한
##상황을
가리
커플
##들여
하남
수질
근절
여부가
체결한
도입해
선고했다
##심판
##현황
일도
##병이
이산
4명이
##교를
원인으로
##남도
아파트는
박지원
감각
임대주택
명목으로
할지
이천
되길
제기된
환급
지난해에는
처분을
##카드는
순차
당신
스튜디오
청문회
사용되는
실적은
역설
트레이
##역의
남구
네오
##아는
서귀포
##긋
증대
17개
불과했다
모인
가벼운
##자에게는
보내고
흥행
질병관리
목표주가
바꿀
이광
크루즈
##프가
##하에
점심
경제뉴스
공동주택
고위급
##에서다
폭이
생태계
##성장을
성과가
박스
발언은
4배
##기간에
사건으로
과감
이상은
##조가
##바닥
제천
최우선
만찬
이용객
##최근
##서에서
뜨겁
##됐기
이재용
기대했다
조기에
경쟁력이
허가를
세웠다
단위로
최상
##주의를
브로
그날
극심한
내용으로
##임에도
보전
신발
##클리
고려한
##희정
버락
열리고
주목할
##국제공항
설명을
##과도
모듈
##청에서
이틀간
##자연
럭
##리츠
보낼
사업장
반발하고
도입한
##입찰
못했던
땐
##치인
##코올
얻었다
수익률이
즐거운
신생
김준
베를
##루션
색깔
추세다
산책
희망하는
매장에서
##심리
거기
내걸
않았다며
애니메이션
광주시
지원하기
##저히
법원이
씻
인문
국방부는
지배구조
대우조선해양
몰래
##전략을
체계를
이우
##업계는
##음식
급식
##억여
베네
갱
심상
마이크
##ᆻ더니
##왔던
하나다
##강화
후에는
예산안
찾아가는
다이어트
전자신문
이르기까지
담았다
##질러
약세
##믹
금요일
광범위
영화를
문제다
체제를
과제를
##들께
오찬
분위기다
처방
체계적인
남긴
##채용
유권자
견제
##작을
##분쟁
미얀마
잃어
##지방경찰청
##연도
음악을
##면세
합법
매진
상당수
##모터
##단위
##스토리
공사가
사람과
상처를
설문조사
홈페이지에서
##회의에
##위권
채취
삭감
진술을
민감
밀양
상봉
측면이
원활한
득표
##청장
저자는
나면
나은
업체에
상의
테이블
협력업체
3시간
낫
##뉴시스김
놀라운
타기
올레
##부양
불참
##세력
재미와
##나고
플라스틱
답답
거리를
박정희
남동
간담회
가라
2010
현상을
조건으로
종합적으로
소음
##비리
경기회복
위험한
증인
신성장
오고
세일
##년을
선물을
부총리
2011
불리
과열
펼쳐진다
이메일
비난했다
비록
다를
##진출
자세히
조사할
셋째
##줄이
늘릴
피로
발을
##이익을
##중앙회
##50원
5만원
사회가
실수요
월스트리트
후임
전염
분석됐다
나란히
##이동
작전
일방적으로
##욕을
시점에
정성
항암
변신
기본적인
##해서는
안전사고
괜찮
사업비
면에서
여전
##국과
추정된다
##히지
방식이다
##방문
방문하는
금연
고무
1의
못했다고
구호
결정했다고
형식으로
##회의실에서
옆에
너무나
보합
공판
노벨
촉구하는
가능하도록
##두로
진행한다고
선거구
금품
주관하는
##렉트
시티
양보
거점
##살인
공을
걸림돌
##84
원인은
과반
##분과
상품으로
##자리에
현대모비스
못지
상주
머무
##측에
##네이버
부터
강조하고
중에서도
메인에서
골라
영토
##강원
##입을
##왔습니다
다채로운
둘러싸고
##국적
받으며
이후에는
의미한다
국감
##연설
증가에
50만
제작한
모른다
추진을
최장
다양하게
지경
##뻐
수익률은
성동
전문가들이
막는
내용에
##어린이
넘어선
14개
참가해
애로
도요타
구입할
공제
뮤직
##해줄
웃음
##일반
안정적
경향이
모르게
휩싸
꽤
112
소재로
그들이
금액을
노원
뚫
헤드
불량
증상
최다
다리
회담을
개발과
잊지
선생님
사항을
시일
물량을
제안을
취지로
경제정책
정선
##세도
말부터
만화
기대가
비만
기지
유성
##관리에
옵션
4월부터
귀가
매일신문
자치단체
것이었다
낯
식량
##토지
가족의
##반도체
자매
축적
돌리
저도
그렇다
##하기를
현대건설
##트리온
##규의
갖췄다
출제
이원
신기술
북구
외환은행
##글로벌
##박근혜
스파
60대
기능성
중형
##트롤
##현실
브리핑에서
그룹은
리비아
각광
##지점
우편
불출
오페라
경로
패배
혐의가
엇갈
야당이
뉴욕증
##추천
2022년
유학생
만만치
저희가
##뚝
##우며
매니저
스테이
제안한
없다면서
##당국의
##공시
##동력
결심
내놓을
의학
비전을
환경에
##뭄
이념
불필요한
반해
##협회가
실시해
코로나19로
##버트
공청
구성된다
관리가
환경이
소감을
보인다며
이끌고
##규칙
몇몇
단계적으로
한경닷컴
다음주
금액은
소장은
분석하고
찬반
주목받고
사용을
힐링
없으면
오른쪽
제2차
##기관으로
선택을
회동
새마을
지급한다
브리핑을
뭔가
일부는
##자나
193
지키는
시중은행
일본과
채널에서
정도는
있었다는
검토할
##혈압
한인
##금액은
국토해양
##사히
재학생
행운
투어
준비가
감염병
보니까
##훼손
막고
##방식
가능하다고
##남을
##광장
##양이
지식경제
현지에서
확인하는
##단장
펼칠
진행되며
##쌍
화상
이집트
##카드를
박재
##ᆻ으니
삼성전자와
전국이
일일
불확실성이
##분으로
사태에
서둘러
화제다
##산업은
날아
비서실
퇴출
주춤
리콜
독려
##연은
헤지
구는
주차장
선언했다
##내셔널
랜드
홍성
브렉시
출퇴근
현황을
상반기에
##모바일
##절차를
금감원은
제공하기
전해졌습니다
특성상
저금리
의지
기술로
불과한
##센터와
맡았다
뭘
법원의
선정했다
##톨릭
대주주
##타를
##부부
지침
웃돌
수감
20개
##크는
전장
##세훈
활성화에
덜어
한방
아래로
뉴질랜드
봅니다
##동아닷컴
미용
관련해서
콜라
후보자의
##등의
##저우
인수합병
장려
##어지고
이코노미
경위를
##켈
서대문
오늘날
##색이
자라
국비
##목표
1000만원
##흔
중산
철학
권영
분석도
##여름
##책이
맛있는
가정의
김혜
전제
##북부
주장했습니다
키우는
자신감을
금리는
회피
실질적으로
피할
2030
배가
부끄
##리면서
구축해
##비전
오브
수상한
##공천
우한
침수
쟁점
익산
##빨
시점에서
다니는
##르몬
유산
##란을
삼성의
재경
헌재
역할이
시에
맺은
##조는
##하락
체중
것임을
##기상
상품권
##보다도
국제적
##년이
지도부
##청을
203
방침입니다
##내에서
법령
세우고
500만원
챙긴
농어촌
##두환
비자금
업데이트
방식이
법원에
##에스
인재를
2백
서비스에
##인들에게
알레
공급을
이색
##기업으로
제조사
경호
불편한
완벽한
쏠리고
정책위의
시작하는
배경으로
##93
교육부는
남성은
울릉
##회장은
기쁨
로켓
많을
서울고
어쩌
스타벅스
방영
롱
##보로
군사적
##기업을
나서야
##82
달할
폰
후보자가
거리에
사용하지
밸
이산가족
붙여
송파구
파는
정부도
##베스트
다룬
절약
여론이
수업을
7만
##공유
##인원
강수
소지
조류
##여개
본질
플랫폼을
푸드
밀접
동탄
뚝
국민과
떨어뜨
티켓
##회사를
치명
##거리가
##등이
상승에
##맘
##종으로
팔레
동계올림픽
##군수
치아
웨이
아들이
자랑하는
사업이다
고객은
##컨설팅
발탁
액션
논의했다
가축
##통신은
훌륭한
양호한
않다며
높인
멈춰
가끔
##베이스
여지가
전체적으로
재확인
하위
##내외
세계에
##생의
시대가
셀트리온
일본을
자기자본
삽
몸이
알아야
보아
##펀
버티
문서
결정하는
의견도
청정
2명을
##간접
투신
주장에
동아시아
##메리카
##더스
족
경부
##특위
장거리
성적을
둥
##발이
쾌적한
손학규
찰
않는다며
##카카오
파라
##도미사일
##셔츠
처벌을
호소했다
##종은
인구가
통증
판결이
##보며
부산의
##마블
버려
위해서다
장수
원금
치료제
##데스
있으므로
선거운동
거리가
규제가
##되는데
운영해
국무부
##87
##비드
다뤄
##미한
선택한
시민이
##발전을
전환을
손해를
전통시장
기술은
커뮤니케이션
##플라
부장판사는
##세이
핀테크
효율적으로
취할
비춰
움직이는
##산업이
국영
빨간
##뜩
##면허
웨딩
##티나
과학을
##치면
양낙
파손
##밀하게
업종별로는
아이들
연구소
한의
##수행
의미다
인쇄
조정을
##생물
미사
감당
예방을
##중독
##스토어
##코리아는
차입
뽑아
들어온
목표주
흙
투자할
금융시장
인터넷을
##회사가
우리금융
상실
##산업을
바꾼
명확히
유학
사모펀드
참모
이대
생계
탁월한
느낌이
##우지
자부
##위생
공식적으로
##시행
##할인
구형
잇달아
전신
##회원
장점이
기념촬영
위기가
국가정보
호텔에서
##영은
##자다
명동
증상을
개정안은
개선될
종업
특별히
각국의
##포털
교육과
떨어지고
깨끗한
보러
##이면서
##옵션
푸른
외국인과
유진
프로그램에
전망도
복수
주소
봐도
가까워
수출은
인터뷰를
사교육
##라리
국토부는
화가
그건
##광역시
##습을
감사의
##촉진
제휴를
9천
휘발유
##음료
모양새
김현정
내일신문
##업의
한국어
낙동강
증가해
진지
시속
학교를
##해지
##응답
카지노
##랭
하루에
##ᆺ이슈
크림
컵
##전철
##졌던
환자를
튼
김은
도주
확보에
유감
얇
##노이
##련의
거기에
필요하다며
주민의
##난을
듣는
재산을
##단속
선보여
꼬집었다
3위
키즈
겨우
시험을
노동조합
청계
적용된다
타격
##골프
차관은
대하여
직원을
일명
박용
##권에서
않기로
상태에
##위원장의
작가의
중부지방
주상
감수
개소
##97
보며
##다란
쓰지
짓는
머물러
##퉁
사육
##레인
##늬
치유
##움에
개발이
##파를
정관용
##연료
재미를
패러다
급격한
##스러워
내려가
태백
바이어
아이들을
##되게
재계
##9천
중진
##산과
승용
##ᆯ러리
임의
미루
바뀐
유류
불교
반영된
강화에
한도
##지급
기간은
##겨진
줄기세포
평화와
##사기
1000만
사용이
##렬한
승부
아르바이
교역
##고등학교
존경
붙어
##ᆻ을까
##쉐
해병
필요로
몸매
1조원
악용
이사는
컨퍼런
충주
좋고
스토리
한가
느낌
많다는
전사
뜻이
##남미
##퍼시픽
됐고
나누고
시흥
행사에서
선정한
서울뉴스1
언론의
시선을
닷
업무에
마스터
관계자들은
실리콘
개정을
학과
보도입니다
##병원은
##방법
수준에서
대우증권
##륨
근접
증시의
못한다
정권이
##동원
##두를
상세
손으로
##로워
20분
##그라
한전
달간
3학년
스코
주택을
##벨트
초고속
생각한다며
서식
방문을
참여한다
동해안
부당한
브랜드의
농축
##총회를
정책과
밀리
지난해에
날짜
모래
우위를
##86
하반기에
핵심은
##홈쇼핑
그중
스킨
해주는
똑같은
어쩔
금융감독원
달러로
##도서
불투명
##긍
대입
않는다면
대학원
이해를
감사를
##배당
과목
안으로
허브
모습으로
##뚜
1500
사옥
구축하고
##양의
연평
부회장이
설치하고
건강에
김유
나섰습니다
긴축
끊이지
롤
동화
줄을
절차가
당이
보시
버튼
##벤처기업
애플의
느끼고
국책
받았습니다
밝힐
##리조트
##센서
싱글
근무하는
피부를
##표가
밝은
계획에
불가능한
정보는
금메달
딜러
소통을
의사가
할아버
파키스탄
독일의
평화를
전체가
암호화폐
인정받아
투표를
나옵니다
##박람회
진실을
##려가
이용하면
공론
인플레이션
받으면
거제
그러다
##희롱
공수
##센터의
출구
온실가스
컬렉
##리티
##훈련을
##모가
죽은
지위를
가뭄
남측
본사에서
##눈에
##염을
미래의
최근의
위치를
약물
옵
조선일보
##83
##영리
그저
잡는
선언한
종목의
연계한
명문
타이틀
##깐
관광객이
##비용을
500여
절차에
전쟁을
##서부
##에다
모습은
없는데
단일화
높을
아카데미
그림을
감추
기다려
##인포맥스
고부가
##블리
평화의
아픔
집안
업계는
쌍용차
크다는
문화가
있나
점검하고
국제사회의
##브라
하도록
근거가
다쳐
##념이
##일러
정진
##94
##희망
##동으로
##억원과
또다른
증액
목사
대검
준비한
##ᆷ프
말라
##업자
메신저
업체를
고추
내보
앞세워
##친화
위에서
해지
제이
##96
이창
특급
밖에도
한쪽
##군사
##포터
솔직
##강도
통신은
##여건
이벤트는
##콘서
유치를
선대
신한은행
대다수
얻는
기숙
##엔지니어링
##상거래
##영향
##닛
##주군
공간으로
##용지
박수
360
출품
신화
휴게
차이나
##ᆯ을
도시재생
이곳에서
편리한
시작되는
##일으
##슬러
지키고
싸이
##래도
위상을
우려했다
아니었다
확정된
퇴근
##ᆺ값
##석의
대학에
요청한
##개입
##심사를
인스타
##했다면
중이던
한라
자립
올라서
타워
은평
영구
전보다
면허
상처
증가세를
##경쟁력
200만
돌아온
산업혁명
신선한
차원
부드러운
##까지의
##시켜야
##더라고요
##마의
서울연합
서비스로
키우고
##세서
한계를
의혹과
넉
창당
레저
조치로
여가
침묵
##상업
인수를
##노동조합
##창조과학
석방
우리나라가
청취
추징
##째를
판문점
꼼꼼히
닦
그녀는
관료
1995년
뉴스의
골프장
##자재
운수
민간인
##졌지만
전략이
쏠
톤
이외에
##단에서
유독
핫뉴스
화제를
학교에서
##딸
분야는
8만
당당
##저축은행
대비한
대법관
장외
기준금리를
등재
장식
##치면서
일상생활
조사는
법사
커졌다
이순
1박
베를린
2020년까지
인프라를
하겠다
##대금
두바이
전락
신경을
수입차
거둔
연상
광산
##발생
국가대표
곰
##정기
##ᆻ었다
상인
최선의
아이돌
자꾸
필요성이
##임이
판매하고
##업체를
꿀
응용
피부에
수출을
김창
송금
채널을
보고서에서
신당
웹사이트
이해찬
기대감을
미국산
아니다고
컨소시어
로또
##티스트
인류
잡을
자리가
유무
이루고
모델이
혁신적인
떠올라
500만
달라진
##하길
석유화학
이에따라
남쪽
##으니까
##있게
치고
##년의
생명을
##론은
##시간에
칩
##92
##선진
여행객
연구위원은
인사가
공약을
발족
선원
##치다
지속되고
##옹
이노베이
시원
##병원에서
것인데
끝나는
위하여
꾸려
알뜰
끌어올
##주세요
자존
논술
피해자가
##ᆷ보디아
##기관을
룰
##상한
나쁘
연예인
이어지
##석에
먹거리
미안
대안을
4층
차량에
판단해
##사업과
차지한
등장하는
한나라당이
##콕
교수와
##호흡
인원
##살이
일대에서
##돈을
##갖
바른정당
신속히
발언이
엔씨
자녀를
유선
중점을
다음으로
개최되는
요청을
입소
집으로
##았습니다
납입
##조회
본문
연쇄
화합
아끼지
봉사활동을
##기만
주의가
로보
맥락
##람을
성북
차질이
살해한
##번호를
2대
정재
##평가를
9월부터
고대
아세안
##였지만
당신의
##미로
총력을
수료
판단에
##일자리
##구속
##디넷
재임
공존
넘어가
##공간을
바라보는
진압
##시설과
##커스
됐다는
박태
어떨
일원
일회
저작권
주총
학생은
##거리는
넓혀
2021년
판매량이
남북정상회담
##찔
페이스북에
물건
리조트
김희
정해진
방지를
##뼈
마산
##칩
초부터
맞았다
봉쇄
구멍
역사의
##못
동의를
##올해
후에도
것들이
신영
살균
평범한
##하느냐
상원의
최고위원은
보자
##해준다
숨지고
테크노
소개하고
신작
몰고
털
주무
기간보다
##만원에서
말했다고
판매량
1위에
커진
성희롱
##충남
##투스
가입한
매력을
작가는
음란
달에
펼쳤다
오름세를
확인하기
영역을
불만
3회
##관절
프레이
##배에
일어날
프로그램으로
이어진다
##통계
벌일
가능하다는
타협
다해
##플루엔
아이의
한국형
신청하면
양질의
##수수료
상해
만든다
##기업인
국민들에게
##카메라
300만원
구리
최소한의
##상도
요구가
좋겠다
표현을
##ᆯ레이
체험할
##컴퓨터
납세
가득한
2009
차별화
세균
시장에서는
개최한
부풀
자세를
우세
터널
프로모션
보이면서
##해요
지원과
등록금
##익을
##기에는
종종
남지
건물을
만들어야
보고서에
##가에서
자산관리
##했는데요
##만5천
처리할
공유하고
판단하고
그렇지만
불러일으
기술적
전현
##코드
사례는
##억달러를
경제는
##해수
초콜리
##고요
가ᄂ
어려움
취약한
빚을
권장
손잡고
나타났다고
##토리
협상에
곤란
##받는다
남용
증설
##동계올림픽
##론에
일일이
산출
톡톡
##동부
기사입니다
중지
##봤습니다
##3일
여학생
하니
앓고
##지난해
효능
사무총장
산은
웅진
##해진다
선점
받았고
그야말로
무게를
주장이다
##공공
민주통합당
해피
##파의
제출했다
101
워터
공간이
정리해
압력을
노조가
4000
##공사의
국외
수수료를
아직은
가담
개인은
유방
선수가
3단계
엔화
##폰을
진출한
은행이
현장의
##경험
출발해
상품이
처음부터
이듬
주장한
국토교통부
탕
달러화
찍어
서울을
씨티
문제라고
업체들의
고민을
##테일
##디스플레이
양천
터져
이틀째
유흥
민선
목소리도
##변을
사업과
확대되고
##버드
##기인
전제로
안보리
유보
보세요
점수는
강화하기
도의
증진
합의에
##막이
아르헨
것이기
제시하고
달라는
수산물
양낙규의
##쏘
건설을
##용량
입지를
기여한
김윤
긴밀한
##팅을
산업단지
##확대
##건전
동반성장
양의
##물량
재편
오늘도
소아
촉발
##나들
모스크
자산을
세계경제
받아들일
##총괄
김주
반납
총선을
##전선
규칙
양육
말아야
박진
비비
##그린
##ᆻ게
시카
효과는
##체와
최첨단
##만원이
##도시로
윤석
넣고
사장의
예의
하도급
삼성동
소득이
##매일
##윤리
업계에서는
아까
의원에
이듬해
청주시
##럽게
기술의
이벤트도
걸맞
얽
##시한
##전국
##스톱
##디넷코리아
창출을
된다면
눈물을
달해
외곽
사면
양식
조속한
김문
정당한
아나운
가족을
휴대전
한국전력
되풀이
이번엔
6억
##브리핑
정하고
전략이다
일부가
6조
사진제공
없어서
##캐스트
##됐는데
휴식
##주들이
##사카
작곡
이건희
##법률
##분은
연면적
군인
5000만원
월스트리트저널
##발의
마이크로소프트
감독의
##대원
지고
파급
신상
작품은
##증후군
전일대비
단지는
아무도
시민들은
##받게
한복
##리라
##81
##옷
상황입니다
배터
과태료
##모닝
##정보의
##릇
시행하고
성장에
인건비
오피스
한눈에
어렵고
부통령
##찰을
경쟁률을
신고가
늦은
비닐
자사의
행보를
자본시장
험
주장은
##걸음
대부분은
얼음
라면
##스타인
식사를
##투자를
##스쿨
소재를
브로드
적용되는
미쳐
##총회에서
##방은
주재로
거짓말
##구조를
땅을
각자
##중계
무리한
전과
고지
일정으로
새만
약한
진상규
충당
##항에
신사
미래창조과학
과제로
##영기자
투자한
계획은
눌
##현지시각
##ᆨ한
문건
노컷뉴스
##학의
##철을
##두는
##타르
##장관이
내용과
제품과
쇄신
특성화
러시아의
확보했다
판사는
총무
부도
인정하고
과거의
##법안
고사
없던
앓
맞물려
재원
섹시
숨졌다
##신당
언론은
한상
살리기
공직선거
##빅
##우드
개최된
보도를
##시피
##ᆻ든
비용은
적용하는
625
##하시는
절실
##적일
##탱크
차량의
났다
포인트를
커다란
##함은
대표로
##까지만
##읽다
광장
마련에
읍면
어째
과학을읽다
국회는
챔피언
스케
일축
##민주화
케이스
##시설에
훔친
아파트가
국가를
##경비
사용자가
조선중앙
##에요
많습니다
더불어민주
심의를
박물관
들어간다
##횡
##보육
공급할
간편하게
이보다
부산지역
##실업
국가주
주도하는
정세균
##뱅킹
깔끔
운영된다
##저가
##었어요
##뚱
포스트
##감염
갓
강의를
원칙에
걸로
##신청을
돕고
오지
이완
리스트
업체들은
##항만
성분이
자체적으로
모르고
엄격한
공동대표
혁명
##펌
가결
해수욕
임대료
청와대의
하나은행
휠
300만
상품의
궁극
정면
##미세
1년에
이익이
현실적으로
열악한
서서히
미달
##시도
전두환
늘어나면서
이뤄져야
##이도
파악됐다
##출처
침입
백두
하겠습니다
##장학
생산을
##공학과
입체
대응하기
자유를
올랐고
스캔
수성
##의약품안전
눈높
총집
거래량
필립
나이가
메시지
순차적으로
나경원
자신에게
주도한
대회를
노숙
1분
사정이
친구가
구제금융
우리도
##ᆸ지
고혈압
삼성그룹
삼성은
방송된
사물인터넷
6명
콜로
자격증
정시
행사로
##교환
조치는
국악
만났다
##티드
빛을
폼페이
하수
진전
경제지표
##분할
개최하고
좋게
주한미군
마사
##만대
수익이
잦은
이슈가
칼럼
적용된
덧붙였습니다
할인된
지적을
삼고
판단이
1번
##결과를
알바
유혹
스프
아우디
유세
확인하세요
##궐선거
나누는
개정안이
총수
##00만원으로
중국산
차례로
총리와
##했는
보류
65세
##문과
바쁜
있는가
사장을
갈라
##소식
##머리
##와이
외국어
뉴스로
당연한
화장실
##밖에도
전력을
보도가
권역
토론을
포트폴리오
희귀
겪은
##없다
장기적인
##가인
결과로
포상
##심과
월요일
경희
##행동
의미로
매수세가
기후변화
##투자증권은
##떡
넷마블
불거진
외모
구제역
수록
매경
형식
경북도
공격적인
##경제신문
##시험을
협의해
캄보디아
배경을
제의
시한
참조
통합진보
태도
고수익
8개월
월평균
약화
인삼
정책은
인제
성수
##한다면서
총기
불합
##중소기업
있죠
시급한
돌아오
입장에
박병
서울에
거라고
형제
##지부
제치고
언제나
##농단
피해는
##폐기
퇴임
##최고
헬스케어
##대병원
록
노란
아모레
공동체
##작전
예상치
종합뉴스
무렵
##원자력
시연
발언에
가능하고
미투데이
집중되고
설립을
진흥
나눈
##운송
생성
좀더
지나친
우리를
눈물
현장영상
전자상거래
민사
대조
123
시그
구성원
023
다중
역학
민주노동
##8천
인근에서
소비자들에게
##채무
외출
접어들
높아져
##부장관
##규모는
##패션
음식점
발열
예능
외환위기
토크
아이패드
위의
아파트의
한동안
각계
헬로
사임
공정위는
언론이
기득
연방준비제도
##사다
##넥
생애
바람을
일정이
고생
##급적
거뒀다
스타일리
남성의
##위원장과
민영
포스터
##91
주의를
결과적으로
메이저
##레저
##벌이
되기를
밝히지
##공을
강진
기록했고
소모
놓여
##텍은
교육의
헌신
105
위대한
파기
증폭
명에
##일수록
전달할
세이
건수는
각오
##더라
전남도
주된
결산
##심리가
##소통
##실태
##억원이다
해가
주저
교육과정
시간과
혼합
부모님
처한
수익성이
건전한
지키기
정경
##컴퍼니
변화와
특례
온도
##남기
이낙
명확한
울산시
단속을
역동
안전관리
문화관광
터뜨
있고요
효율성을
스피커
무엇인지
##어질
##웰
만료
##점수
중학생
##학술
오래된
속출
등록을
우체
의무화
코스피는
##마련
일대에
출장
의무를
사무총장은
상승하고
상용화
##만기
모집한다
조영
진심으로
##업체들의
자세로
##내역
텐데
대주
##장에게
아일랜드
장면을
최근에
##률도
여건이
도착한
시간당
##기능을
##해지면서
시장과
위원장을
개발하는
강조하는
220
4년간
증권방송
박준
냉장고
토론회
회복을
고구
협회
탐방
##문재인
아이템을
소리가
##인민
##형에
승무원
##네스코
확대와
##유공
회생
아웃도어
키우
##마일
밖의
정동영
##ᆮ는
퇴진
포천
가능하게
엇가
받자
객실
벌어졌다
고집
금융회사
450
재선
발매
##30일
변호인
다큐
##어스
##콜라
보도했습니다
중남미
##재단은
불만이
동아일보동아닷컴
1990년대
하기로
엔씨소프트
농림축산
후퇴
##리얼
신재생에너지
중앙은행
이와함께
가처분
장학금
##고시
##오픈
양측
군이
전지
실질적
업황
##렸던
취재기자
결정은
4시간
분명한
들어설
기분
식의
후보에
이재명
##비율은
야당은
##택시
개그
240
주식투자
시계
일자리가
##공사를
폼페이오
사죄
##꼽
여성들이
가늠
등장한
##조원을
직원들은
18개
대통령도
없지
##정밀
##거를
핵무
##터널
태안
사라진
##급을
임종
##나가는
전에는
##케스트라
##사정
##움은
토끼
##피스
지방의
활동하고
##정책에
간담회에서
상표
명의로
남부지방
질을
##보전
돌아와
##판사
도마
린
이룰
대기업의
믿을
게임의
##먹는
##선택
##왜
안을
싶다는
##궈
기사채널
대한민국을
##라이프
##세인
불꽃
##미의
심어
문자메시
파트너십
복무
박주
대면
벗어나지
형평
##국립
생각은
새누리당이
걸리는
총집결
갇
용이
##래곤
최후
감독이
직원의
추궁
현지시간
##파는
시신을
##보고서
##령이
##곡을
##오스
선거법
##2만
줄어드는
바르
서비스도
란
##는데요
##차게
##금리는
마련해야
전달하는
국민은
장벽
풍경
부르는
완성차
백지
##협력을
특별법
신분으로
영향은
##지휘
그칠
##젤레
##관계자는
과장은
오해
심포
힘쓰
로드매
19대
개최를
봤을
징수
##지정
민중
최대주주
웹툰
경기부양
##보좌
이낙연
수단
##터로
촌
##스팅
##성적
고성능
예수
그러한
강력하게
있거나
##손실
##투자는
고립
물가상승
저출산
##변동
보령
##시절
증시에
냉동
떠나는
권위
3일간
공정위
마련된다
수단으로
제일제
마이클
사과를
간주
##것도
보고를
결과다
신흥국
##이니
취하고
검토해
실적에
일로
5명이
공공부문
트로
이렇다
국장은
상황이라며
지적에
끓
촛불집
야기
학생을
산업을
김씨
##깥
공소
의장이
확인되지
만이다
예산은
유기농
랩
##리자
줄줄이
대학이
미성
등급을
마비
논리
배추
3명을
##호영
21세기
##조로
##전력
도매
##학부
1996년
마련하는
일정한
은폐
폭스바겐
탈모
##인수
##방어
커져
##현재
내용이다
조업
경과
혼란을
대내외
##시의회
철저하게
만나볼
표기
프로야구
조경
판정
##작품
하반기부터
##주에서
스카이
##결이
##마토
##업체와
눈으로
##맞이
빠졌다
총회
거시
소개하는
##민들의
응답자의
##격으로
##달라
무제한
##진구
권한대행
물러나
이한
흐름이
있겠지만
자격을
구속기소
##으려
##돼지
히트
차등
서비스의
정전
협력사
##안내
김씨가
법안이
발레
##타이
##자유구역
##문으로
##플래
지지율이
할부
환경에서
고액
##업계가
깃
15일까지
낚시
러브
폭을
달콤
칠레
0시
점진
##공모
납득
수행할
##점인
자식
차명
실어
글이
최재
##균관
목표가
##둥이
나오면서
되살
부지에
양재
임무
단원
##스레
잡지
인종
기울이고
콤
청와대와
교정
완전한
##공사와
씨에
어찌
카운
해소를
작품이
공개할
않습니까
바깥
튜
##연구소는
일본인
배워
##공단은
##디언
학계
##림이
나오면
훌쩍
계층
장치
장점을
아닐까
재래
적대
국고채
박씨는
제5
##든가
받았던
국내에서는
악영
##만원이다
전기전자
과감한
눈앞
박람회
내용도
서해안
##느냐며
청사
시기가
권유
단백질
무척
처음에는
##루미
여야는
2학년
피하기
신천지
##ᆸ기
##내야
해산
박찬
안돼
##하실
압축
당뇨병
연애
##접촉
뻐
총파
차로
경영을
서양
환매
##ᆮ어
정신적
하나를
경험과
판매한
정기적으로
출시할
살피
끝으로
##비율이
에너지를
식품의약품안전
월세
날로
출고
왕복
추세를
물었다
했더니
이어지면서
혐
윗
커버
누군가
더구나
##15일
노래를
##과대학
속의
어긋
지은
대상에서
혐의도
전문성을
아시안
스트레스를
##문화예술
하드웨어
쿼
명예훼손
##십시오
회사측은
투자자들은
제도적
고전
특허를
갤럭시노트
네트워
##멀
노선을
경향신문
아무래도
유네스코
알코올
##곡동
못하도록
이해하고
적발된
##리안
벌어지고
월간
##하듯
##압의
증강
애플이
기념촬영을
들어오는
##4일
인사들이
근대
##청년
교통안전
산업은행
6월부터
동호
맛과
##형태
이라는
##코스
1순위
적폐
당국자는
소개한다
자가격
번에
전망하고
많다며
다툼
##ᆺ으로
확보하기
비극
##폭은
내면
##했어요
##협동조합
금융지주
적도
전통적인
통과한
50만원
비치
조선비즈
##극장
3인
하는지
편안한
대덕
판사
착한
보금
자유로운
자유무역협정
계획이라며
##미애
도청
주어진다
키움
넘기
펀드는
##대리
게이머
구성을
점검을
상승할
마포구
휴양
##가전
##억달러로
피력
있어도
##증은
##고속
행위가
##1명
국정감사
스포
때에는
환승
하락을
##부도
##예고
5월부터
부산에서
한두
시원한
앞바다
부평
효과도
##만으로는
유력한
##석으로
벨기에
대우건설
##위반
대북제재
##록을
활력을
학생의
뉴스투데이
종목에
주민이
##란시스
108
브라운
##계획에
맡게
##버랜드
##사단
##켓을
장시간
##상가
지방세
벤치
레벨
시행할
지도자
코드
##5만
얼어
##만사
촬영한
한진해운
##쇼핑몰
##호기자
상승으로
특화된
일할
돌아섰다
##방울
맡겨
전세가
꼴
기자간담회를
저질러
좌파
현대상
쉼
오일
헬기
컨트롤
##밑
아픈
웃도는
확보하는
##볕
독재
현수
##있어
육성을
결성
맘
화재가
##미니
##상이다
##사관
서경
##화질
간다
오락
시스템은
기성
##남용
다자
양이
폐기물
번도
온갖
담합
##쾌한
해석된다
##양성
서산
##기정
설치한
문체
##스마트
##단지를
##지배
돈으로
가량의
자랑스
손가락
역사상
양해각서를
정도에
##러워
도대체
##비행
매립
##디스크
조성해
두려워
부산시는
##5억원
남겼다
##션이
송치
관계부처
참배
설치를
잡혀
손안의
파병
감사원
##조성
마르
문의하면
시민들에게
급증하고
수입이
일본군
아이들은
뜻으로
당을
티셔츠
합리적
최근까지
##매입
열흘
멋진
회전
사진연합뉴스
##리면
유대
마트
성실
##곳으로
##임대주택
치료가
일반인
##지사는
위원회
상임위
선교
당황
##연구원이
장미
의정
##으로의
##형과
화폐
##수요가
수용할
걸렸다
링
양은
모스크바
서울뉴시스박
해상에서
내세운
해결하는
##매체
확고
자발적으로
행안
7개월
장이
##오면서
꿈꾸는
##시간은
주사
해설
누구도
분야별
사퇴를
난방
현대증권
참석할
##친구
거둘
연구에
체결하고
인양
##버스터
대명
학력
지붕
제도다
요구할
유재
현물
직영
공단
없다면
나가야
한반도의
있겠
3000만원
무엇인가
##규모가
미혼
##이슈
##가리
하야
##수리
주상복합
계획하고
역전
공안
##교부
##습기
아찔
엄중
##연계
기소됐다
일하고
공사는
무대를
단독주택
고장
나가고
생산성
국가에
##명도
고양시
##주류
벤츠
기회로
비난을
새만금
두는
후유
아이스
아모레퍼시픽
건축물
##헬스
덴마크
캐시
성장률이
브랜드가
이철
행위에
드라이브
모였다
잠을
정치권의
김도
공유하는
청장은
써야
부작용이
팀을
에너
공모전
그것도
애플은
실종자
배임
##지식
역외
이용이
교육청
##벅
지식재산
인수한
1994년
##앤젤레
##워크
##ᆯ은
##인한
사진과
아이들에게
##교육감
##지기도
적게
##대회가
세상의
격차가
##조리
만하다
회의에
체계적으로
대선에서
금리인상
부결
한옥
재정적
나지
##기업은
취한
이산화
##유는
이밖에도
행진
돼지고
개선과
신입생
##파이낸
아토
보충
팀장
급변
##플렉스
##등한
마라톤
##데스크
배를
실력을
##수산물
10월부터
영유아
쉬워
피아노
사격
명백한
##본부가
환수
##비한
자회사인
생활에
##마가
내게
##2억원
한데
교수를
##심에
하세요
##열을
김인
##린다는
세우
물려
헤지펀드
선정돼
출발한
##티스
##겨울
카이
##정책의
생각할
손해보험
준비해
비서관
졸업한
국민건강
기저
정서
순회
보상을
영상편집
##중학교
목표는
보험사
소중
잇따르고
공개적으로
브레이
조립
싱크
현실화
##에게서
가방
집중할
##매장
신중한
##거래가
진단을
##라의
이곳에
##수영
쌓여
##침해
채소
##어링
효율성
드물
이해가
##10일
업무보고
인체
묻자
블라
롯데그룹
미만의
협정
양국의
##환경이
최강
조치에
##시킨다
25개
소비자에게
##니는
김천
우정
대회는
##즐
부상을
녹음
달성할
대단히
이것을
해변
##스크포
제1회
##공식
솔로
메이크업
예매
상승이
무죄를
제시하는
##거래소에서
국가와
평가하고
풀려
소주
거다
신인
답을
##ᆺ밭
매력적인
##차와
서울연합인포맥스
취지
##본을
수직
합산
##면접
양적완화
900
##20일
##해주고
2위를
개발된
증가했다고
자정
국어
넘은
로버트
돈은
대목이다
그렇습니다
화면을
김홍
제한하는
참가자
1990년
##라기
트랙
이득
청춘
아티스트
출범한
성장률을
잃고
감정을
##선도
혐의에
세련된
총장이
애국
##적이라는
변수
여론을
추격
지나면
명단을
확진자는
증거를
비관
부재
과거에
##설에
종목을
간판
낡은
230
졸업생
다운받기
요건을
감동
패밀리
외교통상
럭셔
면밀히
코미
기자간담회에서
보게
상품에
##컨대
재외
2008
베이비
오로
해석이
3백
율
##넌
##등에
전체적인
미지수
증가율
킹
학생과
옛날
김관
부부가
직원은
환불
모델은
##껴
##흑
미주
##라이트
칭찬
##거래소
##00만원의
대두
부유
연안
물고
##란시스코
생각하지
헌혈
정보화
##작으로
##처에
걱정이
##아지
기업이다
기록하는
발표가
다음과
정준
무분
##오일
활발하게
##세상
##주자
펀드를
##주면
크기의
싸움
삼척
삼성이
닥
##7억원
##강을
예술의
##폭탄
빚고
탄탄한
라이트
해를
##커뮤니
##용이
양쪽
믿는
알지
웰빙
오너
##스태
이번에도
##사고가
동향을
소외계층
동영상이
박모
강호
전복
비행기
탄력을
지역과
##방식을
상품이다
끼어
##지사가
공연이
질문에는
##곳은
지도부가
##개혁을
##ᆺ물
후쿠시마
##케미칼
다국적
중고차
지시를
속으로
서울시의
공기청
##300
가입할
짚어
사우디아라
20일까지
7명
도망
금전
살아가는
##증으로
박탈
치안
보답
##역량
웃음을
##ᆷ으로
왜냐
방사능
김세
중으로
실버
목적이
국장
무난
말씀드
기준은
하시
소비가
##회의는
간소
끝나면
##메르
괴롭
접수된
배분
김원
헤럴드
구조조정을
떠올리
제임
매뉴얼
번영
주장도
밸류
계속되는
성장과
모토
##2명
전망치를
##니를
있기를
딴
일시적으로
내비게이
##전도
든다
헐
##매각
##부상
##빌리티
색다른
핑크
아프간
고민이
부모가
관건
휴가를
##제도가
레이더
조문
나들이
##스럽다
트위터에
활발히
대선을
낮게
##카를
학교가
줄어들고
##사회복지
방식은
이루는
추진하기로
소멸
##자동
제주시
선거가
악재
짓고
온천
아키
위반한
쓰이는
발표하는
정상적으로
##경의
대응에
권력을
##미술관
##자리를
이거
주식시장
오토바이
##경기도
은행들이
##육성
##번지
계란
##모직
##핏
##정동
익숙
지시했다
서비스와
봉사활동
서울은
중대형
이식
확정했다
자랑한다
거래일보다
중소기업이
가져올
뉴스가
손실이
주둔
줄곧
단계에
##하고도
주의해야
균형을
다음에
##6억원
방과
아이스크
캐주얼
민영화
바다의
##버려
폭의
쏘나타
가톨릭
계파
머물고
대사는
##담배
##돌리
점유율을
여부와
##가공
##베르
##5백
로스쿨
여당이
지지하는
희생자
##번째로
농림축산식품
##실적을
편한
이르러
역사와
중심에
당진
모건
텍사스
불가피한
100억원
성남시
의료기관
노조의
##상인
박기
가계대출
##겠죠
가볍게
##주거
전달하고
생각에
변수가
설명회를
동월
대성
불고
개인과
픽
젠
성균관
국정조사
##리더
##광장에서
빼돌
팀이
효성
송환
##대회에
실전
직원들에게
##영수
해외로
조망
즉석
좀처럼
104
돌파했다
트렌드를
##소유
추진한
중의
공주
수위를
비자
연기를
견본
자금조달
경기도는
약속한
의료기기
자외선
르노삼성
프로모션을
자사주
취업자
각별한
해외시장
알고보니
이끈
대신증권
5도
##홀딩스
아버지가
수석은
국도
시설이
권익
정권을
##3억원
제고를
수원시
맞대
##캠퍼스
##27일
##하를
한국투자증권
발표에
근로자의
체제로
평가에서
정보보호
많은데
불안한
전자가
정치자금
도우
마련돼
씽크
##대상은
즐기고
가세
시카고
수분
내부의
여성들의
보도자료를
저해
비트코인
핵무기
로열
등록된
넘긴
부가가치
##러스터
지적하고
그룹이
대전시
지인
##오던
10시부터
생각하면
광교
개원
##랑이
##1억
잭
사설
경제성
양측은
서비스업
모두에게
참여정부
##마는
##개념
금년
구급
돌며
##28일
시설물
##보지
##력도
덤
##수정
김남
##집에서
검찰총
##주의보가
##업무를
성별
##수단
등교
##윤정
공표
강사
##타는
채팅
구름이
알려지면서
나주
부문은
##원전
국공
국민들은
반문
열대
##25일
쿨
김효
잘라
한성
공부를
입금
실패한
모레
팽팽
##포스트
있었을
명령을
서류를
##만원대
대권
금통
읽고
고래
등장했다
전망에
개인적으로
운반
직결
본회의에서
##지나
##클래
출시했다고
재학
차례에
상승세가
관계에
##청원
지키지
해결해야
면서
##황을
오스트
잡기
주민들에게
지속가능한
##26일
계약이
대법원은
숨어
임진
뒤에는
악영향을
변동성이
##지하철
포용
달러의
다이아
국제통화
지는
외교안보
통합을
읽어
##2개
드러낸
튼튼
##문서
학업
양양
때문이라는
오산
심각하게
골드만사
인상이
##ᆻ고요
차분
##움과
구매한
아침에
##스타일
종류의
계승
최경환
오직
교육은
교육이
깨고
부장은
로스앤젤레
생리
강서구
방침이
눈치
적용했다
포도
국제유
비로
본회의를
##행위에
##소송을
어디서나
예정이
나머지는
중에서는
이곳은
##공무
이라고
그녀의
단단
견해를
아르헨티나
##았던
같은데
대학을
안전하고
고심
결정된
실감
##파워
워크숍
근본적으로
##망에
기다리는
듯하다
증거가
사무처
성장한
무안
저널
##스톤
점거
##러블
##볼라
안착
3주
##품으로
사이트를
##00원으로
가깝다
브렉시트
세수
파악할
독거
사정
하다가
후진
가급적
구입한
##3만
##해준
##혈관
고등학생
##강대
최고기온은
매물
##병원에
상원
##추어
##퇴직
차량은
해온
않았을
##방역
미성년
만전을
##동포
##지연
법이
이해관계
투자는
사장과
한국은행이
자궁
힘들다
시사했다
장기화
##교실
밑돌
##민은
##솔루션
##행복
해외에
급증했다
차장
##테스트
버리고
제1차
매몰
달성했다
시작된다
벚
서울뉴시스김
##맛을
손꼽
##세탁
엑스포
##인상
##돈이
##피를
덕분
7조
##외국
그러자
##1억원
##협회에
재정경제
오디오
학생부
##활성화
던져
실시된
평가하는
급속히
의미하는
사회에서
고창
##여부를
단호
아니며
산학협력
##아산
과징금
보이지만
만일
코레일
줬다
이희
임금을
성격이
##였다는
발표한다
##종에
게시판
투자자의
꽈
##ᆨ스의
산악
원로
##업체로
인질
김미
데이비드
공직자
10배
성공할
##비디오
구매하는
압박을
커지는
항공사
어렵다며
당직
만의
지켜보
표를
##실천
##거래를
자이
재구성
빌리
##에어
한마디로
저렴하게
##들만
무거운
참가자들은
세븐
수년
년간
민자
파이낸셜뉴스
국정운영
##형사
위임
판매할
오류
추진하겠다고
소나
1학년
##롤
딸이
정교
도입된
명으로
기업은행
공범
뿐이라고
기운
반기문
걸음
대부분을
##편에
오사카
분주
8억
##위성
떠오르고
매각을
##공사에
교차
퇴직연금
주먹
이용자가
##5개
15만
뜻하는
바뀔
높아지는
드러났습니다
내려진
최고급
도시계획
상식
기업가
##프란시스코
한발
15일부터
열람
요구하며
##증명
전설
결렬
김종인
검정
##겹
##어지는
대검찰
밝히는
##협상을
##우를
##공단이
대강
어울리는
내기
##진한
평일
사례로
12년
오렌
##몬드
달러약
10일까지
반포
남북한
##회의가
광주전남
##오브
##펀드는
##준호
##단체가
##6월
금액이
투여
대원
##갱
그레이
맞다
##보합
##화물
성장하고
구속된
인식하고
문화의
조화를
출동한
쏟아져
20일부터
주변에서
##투표를
##조명
두께
기능도
해소하기
행정자치
용산구
조사해
##산업개발
##열에
여러가지
추진된다
##섬유
반값
전주시
바꾸고
현안에
400여
여성가족
##예약
정년
실습
도래
##코는
##키아
산업혁
기대에
##프로제
미국으로
턴
최태
##책으로
서두
북쪽
신용평가
1등급
산재
기피
마음의
설치돼
하한
3자
미끄
어디에
관리할
##문제에
분식
멍
김씨의
결정될
규정에
투자은행
##놨다
전달한
##업체들은
##셔서
참가하는
냉각
비과세
##공동체
##하늘
상을
##수학
날인
끝날
주파수
앞당겨
좁은
##만9000
보였습니다
개최된다
살리
존재하는
길게
착수했다
##29일
디자인과
대를
##페이스북
##했으면
한나라당의
이걸
##반대
농도가
##점검을
자구
스톡
쿠바
설치할
공보
벌어지는
##로봇
부응
기관과
단체는
의료진
미국인
##행한
기자는
##8억원
##승인
묶어
정답
차트
고유의
##하므로
토로했다
화해
어업
파란
6000
킨
인정하는
여러분의
게임이
##층은
아파
연이어
반발이
델
상향조정
##았다는
시장으로
기법
##오프
일조
가기
##16일
라이온
114
##3개
펼친다
중국어
신안
그에게
##었으면
공무원이
전무는
##케이션을
알고리즘
남편이
공지
선택하는
작년에
이날부터
##베이터
뽐
부작용을
집중하고
##솔린
##룸에서
노사정
##반의
##메디
아들을
양상을
##스트로
발굴해
수입을
레시피
안겨
인문학
평가는
해와
##ᆨ션
등기
매출액이
아시아태평양
##기업과
##집에
띄는
웬
##뱅
사우디아라비아
##용을
편하게
##회사에
기대되는
달라질
메뉴를
쏠리
##한국당
하노이
지원한
발목을
가족들이
아무것도
낮추는
남미
식민
##지던
낭비
소지가
살짝
##11일
뚜렷
준비에
##게이트
대표이사는
입양
대응이
관계자가
개념을
사형
외교적
##나노
안경
모기지
도로를
건설사
상권
##우위를
##특구
해방
새끼
##사회를
커지면서
도시의
남는
파고
그친
아닌지
든든
##정책과
장남
증인으로
지주회사
오르면서
60여
##론가
상징하는
학교는
변화는
##침이
오가는
시각이
군수
관측도
콜레
노력해
수행하는
제네시스
겨냥해
##6개
##사업부
##시설의
매일경제를
무궁
##유입
일으킬
##연장
##서울경제
견본주택
개인투자
목소리
동종목
무작
컨벤션
양대
보금자리
어쨌든
##내지
품질을
주유소
때의
흠
유명하다
5백
인정한
흑자를
##부르크
굽
가라앉
##1일부터
교육과학기술
현상은
##프리미
원정
요금을
##뤼
##호기
##바꿈
3명의
상고
##12일
##파로
삼성중공업
##항이
##상품권
##사실을
개최할
##티를
적었다
우선적으로
데도
##신문은
되돌아
##방한
##투를
곤두
검토를
선보이며
국제금융
넘지
심리적
중심이
##돋
공장에서
##자로부터
극히
소나무
##호와
##가게
고리
구독하고
##서야
전현직
##고리
##재단이
특성에
입장은
##하시기
시골
##14일
##락이
##2억
100년
전매
양평
##1조
압수
검사가
제임스
판단할
투자와
감동을
##ᅨᆫ
룸
첫번째
사업부
돌연
##적이지
방문할
##공원에서
중단을
모를
##드린다고
적법
국가에서
오르며
프레스
링크
##당시
보건의료
##우로
정권교
기아차는
폴란드
지진이
보증금
명단
제작해
금천
##품목
##19일
조직개편
표본
##인력을
메리츠
글로
대출이
뜬
##집이
##상수
구두
부족해
전당대회
늘었고
##값을
표면
논의하고
중앙일보
부를
기가
방지하기
과정은
철폐
세력이
확대로
흑인
정책으로
더이상
미래통합당
중요하다며
문화체육관광부
영문
##드라마
읽는
4가지
팔레스타인
당대표
통증이
사실과
쪽에
신의
하회
강화했다
소진
인디
제외하면
낙하
의원에게
목사는
대표적이다
참석한다
위협을
태스크포
부적절한
서브
하락하고
역세권
절도
정부서울
##퀘어
더민주
감성
##아카데미
요약
부담으로
남을
##하십니까
현안을
것이다고
##니가
우려하고
##연휴
##종일
초콜릿
기장
액세서
##표시
##글라
사의
해외여행
지난해까지
##문제가
##카는
공개됐다
않으며
거센
##학과를
방송은
사례도
##증에
승차
주력하고
##아리
오면
것일
소방당국은
##이번
##즈베
듀얼
일어나는
랜
##증과
연락을
할리
탈레
획기적으로
인명피해
##으려는
영월
과도하게
##동해
고쳐
개최하는
선에서
가하고
##반이
뒤인
적극적
##통신이
임무를
최상의
불가피할
##거워
샌프란시스코
굵
한국토지
반입
뉴욕타임
예정대로
##학대
가격도
##초를
강원랜드
슬픔
신청했다
감싸
남산
고려해야
##즈와
업종에
##실현
개발도
무분별
##ᆺ수
##니스탄
청담
##진실
비서실장
주최한
드레스
파격적인
알선
감자
패스트트랙
한결
##해수욕
다짐했다
뉴타운
변호사가
##18일
##만9천
##들까지
각각의
##연수원
산업통상자원부
투약
##언이
달러에
막걸
##실질
상황과
한모
열풍
취향
7억
##현장에서
중소기업에
대도시
추미애
건물이
의도가
정형
##빗
##치료를
경제학
센트
변화의
규모에
바로잡
##스파
윌리
개발했다
##현진
감소할
서정
이관
탈바꿈
놔
밀어붙
주세요
##뉴시스이
2000년대
가치는
지역에서는
심사위원
##산업에
이유에
기조를
교류를
심하게
나우
징계를
산업이
선수들이
본선
기초생활
일이라며
기록했습니다
석사
##결의
받았다는
기상청
응답이
카메라를
도봉
##마당
나름대로
##도도
미스터
발전과
상륙
소셜네트워크
##드에
테라
학교의
펼치는
##6일
광장에서
소문
##6000
##대변인은
왔다고
##업체는
강성
마시는
예정이라며
실력
저의
##가구의
##하였고
공백
판단한
업체와
##부문의
상설
지원했다
##로와
국가적
대리점
사외이사
찾아야
##17일
회고
기구
싶다면
설치하는
불신
플랜트
취업을
쉽다
30개
안정성
##ᆺ고
##ᆸ다고
##창고
##프의
##요양
##9일
상태라고
##티는
부모의
신원
##억달러에
28일까지
##23일
생중계
대상이다
##셨
공무원연금
개발할
##독한
##도의회
##린다고
위원장과
팔려
바디
경기에
공천을
멘토링
원스톱
등에게
전례
##연대는
발전소
최선
이후로
인사는
탑재한
기울여
얼굴이
지켜야
##짱
연평도
감소로
한국관광
행위는
##피털
##상장
##7일
순조
밀착
안된다
##적으로도
분야로
증가율이
강화된
활용하고
##공장을
환산
프로그램이다
오후에
대상자
제출할
스타일을
호흡기
가솔린
하원
남의
좋아요
브로커
나라는
##민을
서울이
50년
불어넣
##ᆻ음에도
##엔터테인먼트
공급하고
##4억원
찾아볼
원리
체질
않자
바닥에
##량에
프레시안
주목하고
샌드
4인
사료
녹지
##드림
##더멘
인터넷에
##ᆻ음을
##으로만
로마
10억원
##근한
걷기
목표주가를
##13일
##하러
##5명
##페스티벌
##여명
거래대
충남도
순이익은
##금에
강화와
점령
조성하는
공식적인
##1개
##보고서를
##색의
8명
종사자
모집에
한국당은
건국
스티븐
수석대표
들어선다
논평을
본연의
전형적인
##시키지
주최하고
흉기로
아라
부검
중화
출시한다고
급성
요소를
##만8000
협동조합
##덩이
##주의의
##제도의
예상돼
카테
##보의
그루
첩
탐사
중소벤처기업
판매에
한국노총
국정농단
거쳐야
6명이
##3명
박선
##성향
때와
##소득세
프랑스의
화웨이
제일모직
유한
챙기
##22일
포부를
##하더니
##만히
표출
양호
접촉을
##상공회의소
가로채
은행권
나고
##기엔
남기
것만
결합한
이달부터
자생
다루는
일으키는
내실
방법이다
##여자
##집단
참여가
트랜
졸업하고
확인을
인허가
부인했다
제작된
목적을
표현한
휴식을
충실
종결
취지의
가구의
수월
송영
##카이
고부가가치
준비했다
감염된
##장치를
1급
주가에
강풍
##추가
조직의
사태의
용납
1992년
상반
부문에
되어야
사망자가
공연은
##테마
##고사
장학금을
2심
안타까운
왔던
매물이
대포
상장을
심야
##전당
기점으로
##ᆯ렌
이규
추진에
주식매매
##병으로
##24일
8월부터
업종이
할까
기탁
사업도
명은
6월까지
최영
의하면
계곡
근거를
양국이
##21일
##단체의
##박이
사은
국유
끝나고
것들을
있겠다
##협은
12개월
##이사회
구축할
만인
돌고
한남
차이는
피서
##영어
방송에
정국
포지
당했다
##창업정보의
영등포구
고용노동부
경제뉴스창업정보의
##비용이
##민들이
##6만
블라디
추측
수중
경우를
임시국
홈런
##8일
경위
##이에요
능동
지킬
##음은
비정상
그치지
벚꽃
##뜻
마늘
분들
탄도미사일
1980년대
9만
장면이
뱅크
우승을
내부에서
인출
전문가가
##정산
사냥
보름
대학에서
한명
192
재가
사천
사업계획
달래
왔습니다
경찰서
##잘
마셔
못했습니다
##팩트
증가와
수년간
해왔다
번의
신청은
##가야
측과
경제부총리
방학
스미
케어
활동하는
제도의
##114
1심에서
라이선
바가
익스
반짝
정책적
하이트
재무구조
진료를
1로
언론사
##경에
##조원에
안된다고
새누리당의
왜냐하면
확률이
테스트를
장례식
흩
경영진
국민일보
##수산식품
조형
##주교
##프로그램을
##점이다
방화
모바일게임
머니투데이경제신문
없었습니다
##떨어
말라고
늦춰
자동화
취해
이사회를
내림
길은
주도하고
중단하고
넘을
영종
컨셉
독립운동
##미안
보여줄
내부에
정우
투명한
우려하는
이뤘다
적힌
희망의
개선해
법과
제도는
지능형
행진을
실린
즐거움을
순찰
##식당
예결
210
극장
립
모양의
되자
미네
서울역
##드레
해법을
겹쳐
##커머스
도시로
행복을
분포
##할까
어선
뺀
하에
장소를
충북도
##무장
모텔
국세청은
직격
위험에
전략으로
겪었다
##겠습니까
##포장
##론의
아파트에
##요원
##본부에
전도
시내버스
우선협상
특집
빈번
브루
연인
자녀가
은행에
혁신도시
반응은
인물이
소송에서
지적했습니다
신탁
지냈다
양국은
선택해
소득세
상금
없어요
수납
럭셔리
산업에
##편으로
파악해
보험료를
돌입했다
제목으로
다르지
##객이
넘었다
삼성바이오
##궤
권오
붙잡혔다
강정
텃밭
이강
열을
##검사는
##교육과
띈다
견해
제7
당해
유가가
대화가
앞으로의
조성된
찾아와
확인됐습니다
언급하며
달린
##근로자
시간도
1987년
증가했고
박승
핑
강제로
돌봄
단어
적발됐다
추운
전문가로
위치했다
9년
##자흐
##라운
본래
전투기
홍보를
##여행을
18대
국가는
##민과
교장
##7개
있다가
넉너
만드
주축
##으므로
##경향
조건이
없었고
##중이
102
의식을
주름
운영되고
보조금을
가속화
넣은
비대면
##독립
##4만
멜
##하긴
##간을
핸
잠깐
도시를
위원은
##놓을
의약
밝혔다고
##박사
공작
토종
모욕
##으로서는
시행하는
##냐며
오케스트라
##작업이
총력
드루
대학은
피해자의
2기
##롭고
##ᇁ은
것일까
범죄를
인천국제공항
면치
공습
신촌
들면
목표다
##전담
##라인을
소각
##활용
인상에
열정
한은은
매출의
나눌
중랑
가구가
##값은
흐르는
##디는
신입사원
##생명은
힘겨
##크가
하기도
전방
규정이
팬택
##플랫포
1980년
쉴
택지
부친
##모의
속한
요청에
숨져
멘트
게임에
됐던
닥터
##르지오
미미
박희
##플루엔자
다우존
##교과서
회장으로
요청할
330
종부
약정
청와대에
##하지도
임박
전교조
참석하는
보도자료
대응해
동력
25일부터
집값이
##오리
전진
전기가
이뤄지
당시의
투자전략
여섯
##9억원
적용을
금융상품
인접해
라스
신고했다
심도
동남아시아
민속
호수
논의하는
지켜봐야
에서는
마련하기
##올라
가혹
제외하고는
딸을
각자의
반영하는
민주당과
해커
차질을
##사채
심층
##추적
##반응
보여줘
40분
주중
알리기
##날을
홍천
그해
그렇기
판로
##명령을
##보훈
국회의장
##질서
임산
1000억원
##상태를
##단독
##미세먼
##조절
100명
##6명
3종
##소설
2호선
논란은
음식물
불이익을
검찰과
국군
모두의
##단체장
풍성한
줄인
전자의
배울
갯
끔
재무장관
3번
블랙리스트
##만8천
캐릭터를
계류
펀더멘
지침을
고령화
##립니다
정보와
맡는다
공개하고
목요일
김제
9개월
저감
보훈
밭
대세
##미아
제주항공
진상조사
돌아갈
##캡
심해
맞을
통신이
박경
만남을
##석과
빠질
제기된다
##소매
##모금
의외
5층
30만원
##라가
100억
주범
##키는
파생상품
지나지
창업을
도보
##잡이
영수
##르면서
##수익률
첨가
##비도
못했다는
점과
##중견
##넨
대항
승소
##정책이
파업을
라운
귀농
자료는
##조사가
영상취재
음주운전
따뜻
회의가
주최하는
떠오른
단기적으로
극복하고
상태입니다
무이자
##직에
완벽하게
김석
자신들이
건데
전망은
자치구
좌절
서로의
금호타이어
요즘저작권자
논평
지문
3분
입수
##본부를
##교가
개표
정읍
##노컷뉴스
여드
고소득
핵심인
구성하고
공채
않으면서
부분도
제시할
##입니까
##소방서
낮았다
지자체가
##불량
경제와
헛
##맞춤
##하기에는
##양은
인정하지
반대하고
죽음을
방콕
달리는
1991년
##르며
공헌
나타난다
##배가
필요는
결국은
2월부터
잣
##척을
것이어서
얼어붙
생겼다
2부
아니다라며
1993년
개를
깎아
##카르
##맥주
##달을
외교부는
##작은
탄압
될까
일반분양
장점이다
전하는
루머
북극
법무부는
측에서
수호
숨지게
##하의
소식통은
성장하는
최정
##들에게도
##차관
알려지지
##뉴시스박
확고한
대략
수사의
자격이
심재
동안의
부품을
16일부터
기아자동차
시기는
대개
엄정
마침내
찍고
비영리
##란다
하얀
스노
가슴이
만들겠다고
던진
증가율은
##우병
게임은
##란이
펀드의
아리랑
##착륙
##터의
아르바이트
##발행
나서면서
##뿌
##감치
연결합니다
신종플루
먹으면
##창원
##베리
##이었다며
하락할
알렸다
하버드
전년도
경영에
유치에
##문화의
취지를
놓인
혐오
##방학
승강
타는
시스템에
철원
##골을
##경정
물결은
정계
종일
제철
##판으로
대기업과
와의
개인적인
남경
주변을
##슬림
##수엘라
중앙정부
비하면
11번
예정이어서
집필
##로직
담겼다
##희는
많지만
전기를
가져야
이자를
협업을
친노
교육에
높아지면서
인기기사
##케이블
바란다며
##빨리
고영
##공화국
브랜드인
사람들도
##소개
깨다
지시한
피자
홍삼
성장의
##사와의
가격의
비교할
물품을
비용으로
##가격의
##합동
기대한다
사무실에서
똑같이
결혼을
조계
예상된다며
체험을
##날레
해남
전성
전망이라고
방문했다
가량을
##오프라인
삼성생명
##ᆨ스가
##급한
하나하나
대정부
치료에
시뮤
10일부터
270
홍수
사망자는
전문가를
이어서
7대
타당성
이노베이션
검증을
동포
##시설로
휩쓸
가로막
사학
클리
인턴기자
##음으로
징후
##현동
유적
##4개
##위기를
##경영을
지원금
계신
##기초
높지
창고
##메가
##상호
25일까지
전쟁이
늘어난다
##체크
편의성을
적혀
답한
찜
개선하고
여당의
##원이다
##뎌
##개발을
있느냐
대의원
##체적
프로젝트는
헤이
##5억
##농가
이회
고양이
취재후
##훼
일과
예컨대
##대장
있었기
주최로
제출하면
구축에
##ᆻ는데도
이화여대
평창동계올림픽
공방
지역별로
구역
내구
교훈
라인을
직원들을
적당
결정적인
노르웨이
참관
붐
뜻한다
##대회는
회동을
보였던
확보가
받아들이지
안되는
강화한
서쪽
##분리
어두운
##유기
설명회
묻지
##으로서의
##크림
##7만
증가하면서
1200
##혜진
##팀에
인력이
사용자의
##최대
성장했다
##선거관리
##들기
알릴
##찌감치
키울
자위
주장한다
확산에
##비즈니스
차에
관세를
보장하는
##한화
업체로
한중일
오후부터
신청이
호재
거리두
폐렴
##산에서
축제를
밴
종업원
호기
구성했다
2차례
검역
##임에
배운
##안으로
될지
김부
귀를
론스타
##율도
성장성
대통합
##지원금
발생하면
관망
잔여
낸드
저를
##설명회를
언제든지
연락이
경제협력개발
부부는
양승
##교육청이
싶습니다
보호하기
세계가
국정감사에서
##리조
방사선
있겠습니다
하려고
파크
담배를
최씨는
2번
멤버십
서초동
안전에
##영이
거론되고
부족으로
학대
외형
##건물
##간다는
의구
##협회와
지식을
이례적으로
도입했다
칼로
##지거나
참으로
경인
가습기
처리가
##즈에
##대생
책임은
14일까지
러시아가
##규정
할당
##탱
##시기
향상에
로맨
제기돼
가자
이내로
도입하는
의문을
휴일
살기
네이버에서
##열이
무겁
벌써부터
해요
##노동자
아버지의
1도
점쳐
기자네
시위가
국제적인
회사로
입구
어떨까
개최해
##슨은
용도
근로시간
전술
조장
법무법인
넘쳐
작성된
증가가
##르다
뽑는
##훈기자
문의가
순식
인사청문회
제공하며
한미동맹
이상한
컨소시엄
##의무
접근이
업무상
걷어
어떻
탐지
99년
공짜
정황이
109
영원
관리하고
현금을
소련
아이디
군사이야기세계를
8000
##7000
분양가는
##비율을
##리던
입는
계열사인
안면
##공약
그들
##소리를
##무용
##량과
틀을
전일보다
우리투자증권
추억을
조짐을
구경
돌아가는
살펴보고
고공
점수가
##러스트
무주택
하우
##현은
##절감
남양주
받았지만
일련의
작용하고
모두를
폐업
10개월
전재
##쑤
질타
승계
선택의
끔찍
128
원칙적으로
중입니다
대응하는
육상
수석부
펑
##찮은
##반은
급성장
상당수가
고민하고
치과
제한을
##행성
##주의적
급증한
배수
##불이
전작
파운드
##랴
부회장의
##스위
온라인으로
터미널
자녀의
무책임
이력
초래할
환경부는
버전
좁혀
##성능
##조약
##특파원
매출과
예상을
학생들
선임기자
98년
원안
지정해
나가기로
룩
싸게
##상권
학사
##군으로
##것으로
103
지원은
사단
국한
구조가
폭넓은
싹
고객과
##출판
낮춘
##렇게
공략에
지디넷코리아
제주도는
##미르
정윤
다리를
신앙
##점도
싫어
술에
##개인
##이미지
살포
2도
이견이
청계천
임상시험
잘못을
인생을
레이스
힘써
바둑
더한
릴레이
캠퍼스
##만명이
##화장품
##특허
최고위원회의에서
의석
20만원
아니다며
문화적
오전에
선발된
구축하는
320
돌아오는
더했다
유지해
##7명
2일부터
가죽
대남
상승률을
부문을
만나고
해결에
여고
##프리미엄
3도
취임한
프레시
사들이
임기가
##칭을
유용한
지속할
줘야
남자가
하자는
그런데도
사직
##휴가
##수용
최고경영자
특징을
김학
토마토
맺었다
##활동이
촬영을
댓글을
생각이다
##동욱
##재무
##상황에
늘렸다
넘는다
추이를
기능과
편지를
내비쳤다
##종인
건설업
디저
조화
감상할
##암동
지방자치
재도
사실에
버블
##란스
##있다고
끄는
교직원
황우
위기의
아쉬움을
최적화된
매치
대화의
서비스다
앤드
##당국에
27일부터
직속
##서스
22일부터
법에
영상이
댄스
분양을
늦추
대회에서
##경제인
다목적
분위기는
실제로는
##의가
마시고
대변인이
열쇠
실험을
경감
생명보험
##내려
인가
15분
보건소
##ᆺ밤
요건
한국전쟁
마련이
기한
##만큼은
##대사관
정문
영주
회복에
않나
실명
자연스러운
짙은
##물질을
강조한다
이세
발생한다
마신
이미지가
도시락
총리를
와이파이
18일부터
퍼져
스탠더
5000원
대사관
##았다고
바람직한
융자
삶에
잇단
값이
있음에도
아니냐고
외래
키운
##컨벤션
바이러스가
##의학
땅에
##구니
기업체
공문을
훔쳐
초기에
##장려
토익
김일성
않거나
##속에서
어디까지
베스트셀러
회담에서
자동차보험
포스코는
대졸
11월부터
##경제의
수준까지
##길은
##공항공
지도부는
하나님
좋습니다
##가구에
조기상환
280
이효
데려
받기도
폭등
컨센서
김우
밤에
##화면
신호를
일체
##스틴
오스트리아
조정이
##병은
당기순이익은
우리나라에서
##해볼
##세데스
##였다며
코스닥시장
파업에
##물량이
호우
##교육의
공무원의
공업
마다
대회의실에서
회복세를
##답게
외환보유
담보로
##했거나
##세무
##쿠르
탱크
설문조사를
1988년
펼친
친일
내비게이션
##31일
알루미
개선된
발견돼
서남
사람들과
##래프트
##예를
멸종
##마리를
전망치
여건을
전하고
##량으로
신제품을
전년동기대비
인근의
보은
참가할
여러분께
##상태에
##영화제
국방장관
##능력이
##임은
아우르는
물량은
##발전소
낮추고
단계에서
이선
영농
##축을
베네수엘라
수요에
확대했다
길로
전문가의
##텔레콤
이름은
조성하고
지구촌
발표될
불복
누락
사안이
다큐멘
##좋
본사를
화산
착륙
총재가
초록
우아
##5000억원
7000
전념
왼쪽부터
##패스
바람직하지
콘크
보석
작년보다
체온
##급으로
어린이들이
##중단
##성형
하락으로
전동
제품인
##증진
##ᆺ의
4명의
##협의회는
##재의
절반을
##호흡기
음원
구본
##어치를
시민과
##마저도
##되더라도
수첩
양을
미수
##혜택을
부지를
영업이익을
##니의
##50만
29일까지
전망됐다
##자금이
뚫고
정치가
있는데다
유병언
호평을
##실적이
스펙
얻기
단식
없었다며
미소
##요구
보라
반사
농장
카자흐
스쿨
##씨도
단기간에
역사가
선정하고
바닥을
역삼
작아
원장이
시행된
6대
집어
이길
극우
반면에
때문이라며
##콰
내일은
191
##제어
나서서
##보와
##디에
##네스
보도한
40년
콘퍼런
사용된
옮김
국무장관
전면에
969
인터파크
함양
동문
후계
순익
입었다
표지
##이거나
규정한
제공을
위협하는
움직임에
##배럴
260
##아래
##과목
팔고
##주의가
##발언
##중을
비유
양측의
하원의
##경색
##공인
염려
##퓨팅
8조
순식간에
언론을
않았기
군대
학교폭력
베르
인물로
파헤
##스페
합창
설악
##센터로
초당
##ᆻ어야
밀접한
국립공원
##코어
스마트폰으로
##8000
플로리다
바퀴
##현상이
호조를
창원시
윤상
뉴스데스크
대담
##작업에
##자인이
자가격리
전역
공개하지
느끼게
자영업자
적격
서울로
거창
시야
##커녕
##지향
실수
민주평화
2030년
지친
평가해
삶이
출연한
촉구하고
아들의
용의자
안심하고
자는
보궐선거
##격에
사안에
요금제
구사
언젠
##모리
동성애
여기는
##속을
##팀과
작품이다
##트니스
위례
원산지
##이제
##해야만
단절
이트
##네마
적용하고
##펀드를
공시가
##볶
오른다
우려되는
##작물
간사
쌓인
##기에서
걷는
인원은
사무실을
교사가
집착
뱃
##뉴시스강
횡성
당선인은
특가
인성
에볼라
##강좌
확인이
거액의
내주
정주
##선수권
##티지
오늘부터
회복이
시행에
선순환
때문인
##층에서
주장하며
안전성을
살아있는
김호
대미
농산
배우고
통합진보당
##프로젝트
실려
지가
빌라
국공립
조성에
댄
수준은
##검진
무서운
##자마자
프로그램의
아쉬운
이랜드
날려
증가를
사고는
상황으로
주도권을
작가가
감기
##전수
자신만의
조성할
##여객
마일리
##트럭
순방
통학
##싸움
결집
닷새
자동차를
##금고
삽입
로그
드디어
개선하는
신개념
도저히
공룡
윌리엄
갑질
성립
##10월
윤종
불평등
일찌감치
##길래
주입
아이스크림
##했음에도
지급할
대기업이
사실도
##용은
길에
확대됐다
시장점유율
##블루
##난다
중요하지만
탓이다
성숙
고충
꼽혔다
반가
트위터페이스북
##4명
모험
영향력이
빼고
네팔
후손
##미노
판매량은
##원으로부터
관심은
인형
실현을
깔려
##전북
하나도
##인인
늦어도
##허가를
유의해야
목욕
분과
처리하는
전문적인
##있고
##장벽
차려
고위험
##잼
시너지를
많기
오버
9명
연구진은
이전을
##하겠지만
거래량이
##3억
배우는
친구들과
공동연구
출력
안희정
화천
26일부터
##류는
정치에
생산할
##관계에
짐작
##차도
법안은
17일부터
12월부터
끝이
안정화
다우존스
##경찰서에
##만명의
영화의
메릴
개정안에
낮다
화답
##로스
어릴
산타
조성된다
중단된
기억이
##으려고
정치의
관영
##여고
조직이
옴
##안타
뇌물을
지급하고
구속영장
유럽에서
최하
주관으로
예정으로
박종일
라며
경기에서
하반기에는
##도르
박현
뛰어넘는
##출자
##스테이트
없이는
##교의
현대차의
신공항
##말이
정황을
##8개
이호
##피니
목을
생긴다
속여
##시설은
민병
2000만원
묻고
이르고
28일부터
본토
텔레콤이
침투
아프가
신청서를
##자라는
메르켈
9월까지
사용하면
##용역
##ᆸ습니다
##인데도
연설을
사각지
긴밀히
2500
10조
세분
양극화
제6
광범위한
난다
법적으로
엮
##면과
청량
받으면서
쿠팡
발표했습니다
계획이며
아이콘
추정했다
진출에
데리고
소비를
##접수
살아남
장치를
##루머
전체에
프로그램도
##내용을
관광객들이
몰린
불허
##만9000원
유지하기
스트리
##럽고
주어진
용인시
수치를
2명은
가전제품
##플란
가다
##되기를
##틈
##말라
영혼
##만6000
##않은
##적이었다
제공되는
##함으로
귀여
텔레콤의
유공
결론이
특징은
보러가기
##샷
성격을
경제정보
신정
##츠는
공인중개
부동
시작될
강조하며
사생활
적고
감사합니다
조정했다
호르몬
락
##론과
리더십을
알려주는
시작했다고
평당
지방은
정치적으로
공유할
자원을
한식
아이오
생산된
모임을
##메뉴
##유치원
드립니다
내놓지
##힘
스파이
대체할
접할
##해결
진입을
목동
횡단
음반
융복합
##병의
복지부
알기
##프린
200만원
후보자에
에티
매일경제
감소하고
이후의
수입은
3만원
21일부터
출원
하청
무리가
제시해
##달라며
경험할
더보기
##후보는
##미리
##씩을
##나의
언제든
##바바
혈압
업무협약
##갸
등지에서
##판에서
들러
지난해와
한양대
가난한
건강과
##통장
##신경
23일부터
예로
뜯어
전방위
남아있는
핀란드
단독으로
건설교통
베이스
분배
##있습니다
자사고
투자유치
코스피지수는
오렌지
치러진
출현
60세
트위터페이스북카카오
##통운
##주의에
##전부터
채용을
누워
인데
산지
건강기능
상수도
트위터페이스북카카오저작권자
설탕
방안은
포털사이트
카드사
급등했다
##검증
##학력
상승률
##하루
나쁨
##로선
이시
##단체인
과거와
판촉
##화했다
3억원
김보
진행자
##산동
비박
자신과
초에
산업용
항해
위치에
##러시아
##링크
11일부터
유관기관
의미에서
양형
##면세점
뇌졸
창설
삼국
서방
##신도
낙폭을
무엇일까
기분이
계기를
때문이
##앤드
연구가
시행을
##제일
공직선거법
유럽과
올라온
내로
기해
정태
##행위가
선정됐다고
##협약을
시중에
열애
5로
##터카
자발적
##설립
돌아왔다
공감대를
산사태
담당하고
눈길
정상화를
##닭
##행은
숨을
고객들을
중소기업을
회장에
심상정
이야기는
원조
전적으로
크다며
바꿔야
부위원장
##구리
##공예
최저임
정상이
레인
갤러리
##강남
##하진
여유가
의무적으로
생일
히로
##해외
얼굴에
1989년
일방적인
간섭
받도록
임기를
##아를
서울뉴시스이
달성을
메르세데스
총장의
3월까지
간호사
##ᆺ컴
없었
심리가
금지하는
미만으로
이장
##역할
인정받았다
양국간
용적
온오프라인
접근할
한달간
7명이
매수를
허락
1주
출석해
접근성이
해당한다
3곳
##내며
가꾸
온라인게임
스토어
워싱턴에서
지적한
경산
가파른
무상급식
기어
##600
올라와
에듀
##학교를
임직원들이
유플러스는
다주택
도입할
1명은
방산
##썩
사라져
건설은
명예를
24일까지
선진화
22일까지
세액
##스럽고
이공
##난방
맥도
꽉
불안감이
##계로
마구
지사가
정립
미래가
감옥
추정하고
대표도
성장동
자료가
식중독
집이
##공간으로
설명한다
떠올랐다
##킬
공수처
한참
틀어
인센티브를
##림의
내다보고
허용하는
세상이
세단
극복을
##산업과
편지
찾아온
소방관
스티브
이용하고
주인이
역내
행사도
강연을
여력이
크로스
출발했다
##파이낸스
단정
방탄
실사
요소가
아태
##야마
##ᆻ지
바뀌고
100대
이상이면
##류에
운영한다고
마인
##대기
소문이
##르드
만족도를
샴
##원장은
2명의
민주노동당
충실히
5일부터
감사원은
친화
사원
부러
의문이
말았다
원룸
##니까요
추세가
일정에
오리온
기관에
에디
하려면
거듭나
4회
연기가
야후
관심종목
작품으로
##투자의
하나님의
영장을
막혀
안전과
성취
회원들이
##급의
신진
##병원이
##매니저
천천
##6억
12월까지
##격은
살린
역임했다
제네바
발목
##결혼
97년
##연습
만끼
기승을
아토피
##개선을
생각보다
2곳
한국수
##한경
행정안전부
##8명
드러내고
##오드
모르겠다
퀴즈
발표는
##딱
구간을
이정현
삐
20명
##버스를
투쟁을
인원이
급등한
채권단
##충전
조항을
##8만
시점이
교사는
인접한
데이터베이스
취재했습니다
센트럴
보잉
##았고
##ᅯᆯ컴
토목
어지
독창
2012년부터
인정할
상한가
2종
데서
주머니
규제개혁
공모를
##로만
벗어난
이태원
협의가
지을
조금이라도
매칭
19개
게이트
##에겐
보습
##똑
아메리카
개최했다고
아프가니스탄
환자들이
이동할
전기자
교실
13일부터
최종적으로
코스피가
다가오는
싣고
우려로
실태를
##소형
##슘
연루된
정운
##있던
파우
24일부터
푼
신고한
##7억
1000여
##웹
12만
격차를
##ᆯ라이
연결된
노골
판매되는
소비자들은
면담을
이대로
바뀌는
체력
많게는
무능
##터와
예방에
나타나지
브로드밴드
인물이다
안개가
##녀가
설비투자
장소에서
엔진을
힐러리
올랐습니다
##해상
##물질이
현대제철
했기
##휴양
##만6천
단연
상승세로
거부하고
시각을
##렌즈
오로지
넘어설
풋
##넬
과거사
인정했다
##보험은
지사의
이회창
이곳을
고려하고
움직일
양도세
의견은
발행한
창의적인
신중하게
넘어서는
리뉴얼
대용량
주기로
핫이슈
랠리
6일부터
6개월간
##시리즈
무차별
##교도
주민들을
##현기자
말하면
##콘서트
기반이
문턱
친절
살펴볼
엄마가
정당이
안전보
##검색
정상은
자기가
전량
며느
7일부터
크리에
나타낸
교육감은
연탄
확실하게
##단지로
##인데다
##199
세미나를
경제성장률
최저기온은
##분야의
수단을
분수
##사업본부
만끽
##론으로
국내산
2011년부터
폭발적인
인연을
##호로
대안으로
떠났다
##팜
##선인
어학
##지분
얼마든지
때만
##병에
가지는
##묘한
##렌트
밖에서
활기를
낮아진
러시아는
원자로
본부장
다하고
산간
##경보
정화
디자인이
채권을
사회주의
##주공
높았고
대동
##타인
요즘은
여왕
생산하고
##물인
계획도
##기록을
추진키로
민심을
##하시면
사망했다
##투갈
##기관은
틈새
이바지
사이트에
선호도가
##더불어
줄였다
방향에
##이나마
문화와
##우수
기능은
지원사업
27일까지
##라클
살리는
##스피싱
##국방
생산이
되새
##법인의
베이징에서
##엔진
삶과
중이라며
있었으나
미사일을
간절
신세계백화점
14일부터
4명을
##고로
덕에
왔다며
타운
1호선
불안감을
##쓰기
옮기
상승률이
롯데월드
4일부터
선택이
본관
죽을
전북도
주에
명실
꽂
##드라
귀환
생산한
판단이다
수법으로
이동이
##국토
##개국에서
등에도
전월세
있는지를
러닝
##경찰청은
인간이
주를
약을
꿈과
##부패
방침에
아쿠
주가를
##생은
거래됐다
사이로
유래
12일까지
이벤트에
회의는
이혜
정몽준
용도로
주민과
조카
압구
감추지
절반이
인정받고
##네트워
유익
시승
우리나라에
매직
지니고
단계로
안정성을
고화질
무상으로
##배출
당신이
2010년부터
않더라도
22개
때려
역할에
붙은
미쓰
붙잡혀
##ᆯ로지
그와
당선인
연다고
집무
26일까지
공간에서
천재
박형
구조적
기재부
휴대전화를
고품
12일부터
시총
확산될
##사범
개도
##제이
워킹
서울지역
잠수함
##부장은
##워치
##위원이
좋겠습니다
##교는
##하다면서
미션
##선한
푸짐
##난이
반려동물
파장이
회사에서
대관
괴산
멀어
당국에
그랜
상응
진출할
지수를
무디
바뀌었다
깨끗
주요국
지원하기로
옹호
##뮤지
선물로
국제유가
쇠고
##관제
18세
##중의
이끌었다
함으로써
양측이
본점
힘으로
##캠퍼
국민들
예방하기
##발사
##ᆷ비아
클래스
부적절
##산업진흥
##선대
발대
##사회적
공산당
불확실성
옥션
2009년부터
8일부터
환자에게
##야겠습니다
주가조회
솜
##참모
확대가
9일부터
연구는
에피
##협의회를
공세를
##배로
1부
평등
올리브
개개
##만7000
밀레
##치료제
##서나
##시나요
인구의
김경수
하여금
건설이
##부한
대금
##글로
뛰었다
침략
필름
달고
확정됐다
5의
##둠
##장에는
보였고
노사가
질적
실증
가요
완주
불과해
방송이
내놓는
##자와의
##수술을
##료품
##시킨다는
##령은
버스를
낳고
##수익률은
유도하는
##원칙
##와도
입문
치즈
##열차
차라리
##투기
내의
압수수색을
2억원
접경
대신해
도덕적
펴내
펄
있다라고
쾌적
29일부터
검사는
5일까지
공관
가입을
마찰
구성되어
교육부가
지리산
##특수
정하는
일각에선
포함되지
보험금
리스크가
받던
비판하는
배치해
전환하는
##더리
대강당에서
##억달러의
의무가
테마파크
##ᆻ거나
차종
연비
잇따른
지위
##쓴
##위치
##기구가
접수를
구조로
##플랜트
발전시켜
우려해
##대출을
우연히
뉴욕에서
17일까지
반발했다
##대책본부
유지하면서
같다는
##개방
시크
시스템으로
아내가
카타르
##계에서
중도금
국제통화기금
##엔날레
정했다
커피를
마련했다고
반영할
나이에
##에미
눌러
여성과
혼잡
걸어서
수행하고
해결해
내정자는
안다고
용기
##스럽다고
##거리에서
늘었습니다
밸류에이
시드
돼서
전년동
다양하다
##척이
수순
2007
저자
대표에게
악순환
평가한
##판은
노력에
내년에도
조원
##발전에
다스
이란의
이루어진
통폐
형편
완도
에버랜드
##병원으로
그동안의
정정
##치킨
하락세로
##모토
10월까지
지체
상급
모순
지금까지는
##시장으로
농구
부어
현실에
중요하다는
관철
하락에
막상
법학
19일부터
우수성을
얹
관제
9시부터
박세
##특례
온다
생활용품
한파
##변에
홍익
##끈한
두산중공업
획기적인
가량이
가입자가
##스탠
##양호
없었다는
야스
콜센터
70여
자의
하늘을
페루
유영
개선할
생필
홍대
##여부
##여겨
통화를
필요합니다
##결합
##저장
증권거래
하는데요
위원회는
숨겨
옮긴
간이
메일
빚은
퍼스트
19세
##행사가
방식에
질병관리본부
##적이며
발라
##면은
중년
디자인으로
##무가
건강하게
상승폭이
좌석
다들
##모로
전문기자
##만7천
##사상
##은지
오가
##슐
의왕
적용될
##종금
##감정
군부
테슬
설정하고
##제도는
민주주의를
잎
##회사는
북상
2개의
은행은
고객만족
바짝
울트라
시작돼
재판이
버린
굿모닝
피터
##내년
외무성
3국
세로
올해에는
신부
##충북
위협이
무의
##영장
스와
논란의
전원이
##재와
퀄컴
검토한
번씩
115
독자적인
때로는
지자체의
바다를
공간에
2008년부터
방류
의장의
##리나
카자흐스탄
더는
##연주
들어보
종합적인
귀성
##반떼
후보에게
언론들은
10도
기내
통신사
18일까지
기동
어제보다
겪을
찢
외에는
비하
부여하는
##자들에
강간
품고
가평
팩트
아마도
보여줬다
70대
21개
30일부터
에는
##위원회위원장
명성을
##자라고
한시적으로
정오
줄어들었다
나누어
##템
파인
아껴
##공장에서
성적이
##이야
입법예고
9억
오리지
##량도
동일하게
인내
밥을
안다
열기로
정치적인
예상됐다
세미
최소화하기
##업과
##병원을
60년
##의사
극복하기
##경쟁력을
프로젝트에
##어치
##계획이
우즈베
컨설팅을
돋보이는
없이도
스탠더드
수요는
총격
대화와
이나
23일까지
##유동
눈여겨
어머니가
오빠
##트레
현지에
##진기자
##환율
외환시장에서
신동빈
추가경정
것이죠
시간대
도피
밝히면서
포함된다
수준이라고
자선
과학기술정보통신
판매는
여론의
소유한
국내에서도
무시하고
##억5천
통지
견디
##틱스
흐름에
무리하게
야심
장소로
악취
5억원
천천히
일각에서
##산림
부위
##퉈
주력할
거부한
공론화
낮출
법규
연차
##비치
정씨는
지정한
들지
부산항
개방형
19일까지
발동
모토로
##등은
되돌
##국세
분들은
적절히
차장은
모아지고
사태는
카카오스토리
매번
##거부
##한국시간
안정된
점유율은
억류
발전할
원활하게
70년
##하자면
트위터를
우울증
##초가
6차
인위
나에게
##장기
물리적
정무수석
랜드마크
정상회담에서
##00만원에
주신
고흥
배경에
##포로
발로
##념의
##석기자
발견했다
선명
##민정
못했다며
2세
##오지
##음과
압력
낮아졌다
##외환
구독하기
불리한
결단을
확인했다고
이사장이
해보
부임
3일부터
##태를
##이체
받았으며
막말
국토교통부는
##4억
각기
정직
성장세가
##단체와
기기를
##연구소가
박영선
소명
##튀
부분이다
##조례
아바
##사퇴
두각을
여주
법관
바람직하다고
##사진이
당시에는
할머니는
##청소
승부를
##아무
사태와
좋다는
취항
강화해야
아름답
총집결클릭
다가온
##권익
투자의견을
##우의
청소년들이
##창을
읽을
##인정
금융감독원은
##법인을
계정
##문이다
##즈니
21일까지
9일까지
11일까지
윤곽
동아리
한솔
결핵
아이폰6
##터에
속해
중간에
3차례
남과
바쁘
숨은
##공은
##부서
##지침
은행과
적시
편이
선거인
올라갈
지점에서
인하를
##2백
##쥬
방사성
##선박
건수가
볼거리
헌정
아니기
달갸
공기가
##혈을
건넨
##상황이
전문가는
한림
정부조직
##운동에
주거환경
솔직히
화요일
##회전
영업정지
쪽은
휘두
저조
##모델을
이벤트가
원작
활성화와
##중이라고
구도
조금만
민족의
즐겁게
아버지는
기술에
레이싱
##신고를
모빌리티
토론회를
수제
3개의
몰리는
선거는
흔적
##단지가
낙후
길어
##억5000만원
##월드컵
소득을
##이어야
##성분
##인지를
무엇보다도
사의를
업종별
비는
정제
동거
세계보건
보험금을
뉴스팀
후보자를
선제적으로
순매수했다
##강한
데이트
뛰어들
##식물
신성
일정은
여객선
##800
플루
대한통운
퍼포먼스
##인들을
##건조
##필드
있을까요
##장한
정치권이
사랑과
드루킹
당선된
바나
정보통신기술
현재로서는
삼성서울
현실적인
##오토
##은희
##이든
출마한
##발로
##이치
잡힌
우려의
끝나지
퀀
비핵화를
되기도
경기침체
16일까지
세우는
이유도
서대문구
중시하는
수탁
##꾸로
제한하고
얻게
##생활에
##지방선거
60일
해병대
각별히
우리나라를
##6개월
기자서울뉴스1
##노무
##포인트1
2년을
##409
영천
권고했다
##방송을
후회
125
호소하는
물놀이
뒤에도
결정적
관광지
##사이버
햇볕
페르
##가중
공립
최성
발견한
##장일
한낮
보이스피싱
회의실에서
4개의
사업자가
운전자가
검찰총장
##내륙
거치지
##소득이
원내수석
펼쳐지는
롯데쇼핑
기적
미스
3명은
낯선
이야기다
부스
디스크
##아니
불린다
고객에게는
공공기관의
초보
1970년대
경부고속도로
##넥스
바지
작용했다
최강의
대접
샤워
##ᆸ스
특위
특사
전략에
##블로
가정을
시스템의
참여하지
삼각
중요하게
쌓은
포드
한국경제신문
마음껏
안개
##느냐에
모양새다
구성한
##인터내셔널
40만
하우스
단체가
세무조사
금리인하
금산
소금
구성하는
지식이
가져다
협력이
다가가
오후에는
##죄를
소관
문의는
##유니
##선관
우라
4도
상승폭을
부분에서
##조사는
샘플
##금액이
##중국해
혜택도
북미정상회담
##보이
##12월
경제협력개발기구
불쾌
쿠데
창구
사전투표
있어서는
시작했습니다
흘러나
산업부
이슈를
유일의
정체성을
##경과
상승하는
13일까지
##지수도
##방식으로
교섭단체
하락이
##보레
천정
특별수사
##커뮤니케이션
없애고
##구축
##유도
영향력
제기하고
가슴을
##펠
##휴직
모델인
##모는
아픔을
산소
발표하면서
감각을
폭력을
개학
드문
오늘과
성명에서
네오위
차이로
상승해
감소하는
##처의
표정
위스키
입맛
다녀온
서울대학교
주목해야
고인의
철새
##변화에
위배
##왔다고
입건했다
나눴다
바꿨다
낮췄다
항생
시가총액은
실속
불안정
항구
카르
##센터장
안팎으로
고민하는
선고받았다
중소중견
오키
싸워
남기고
6월에
경력을
2의
##망의
톡톡히
손보
##변호사
시청자
집중호
구별
##마킹
##대표이사
##우면
감염이
사람으로
주도로
##구치
서울시와
짜장
##제안
업종의
논란과
시점을
##아이뉴스24
전의
##개발사업
##노조는
만족도
1위로
##총을
##손해
펀더멘털
사우스
경험한
반발을
구강
##기나
시에는
공사에
닮은
말아
탈세
해저
생태계를
조선시대
같았다
웨어
##공이
##특별자치
개혁의
구원
강타
책이
##퍼드
정신과
생각했다
5일간
뭐가
치른
보호하는
1996
페이지
금융위원회
안건
부른
디자인의
머물렀다
떨어지면서
어쩌면
비선
##지구는
피해자를
환상
##테르
상장사
복권
발언으로
##기구의
##기업들이
벌어질
2호
고가의
기습
헝가리
시스템과
눈앞에
##부인
선정했다고
슬림
인생의
김근
##9명
한국일보
##올린
새겨
관계는
##회장이
김성태
발명
사자
거꾸로
딸의
순매수를
체코
7일까지
휘말
책임지는
메카
알루미늄
자격으로
먼지
유착
##통에
모습입니다
전환이
조성한
와중에
단수
##각이
초미세먼
금융당국
##웨이는
투명하게
사들
라이온봇
##00여명이
성분을
##방향을
안건을
대안이
##복무
트래픽
되겠습니다
업계가
설립해
행동에
기생
문희
##9개
어드
뿌려
압력이
##03
못미
제대로된
익숙한
추가해
대회에
우체국
찾는다
어우러진
선생의
선발한다
당권
##아시아나
제너
퇴원
탐색
수도권과
한국으로
##두리
##기온이
##확산
##춘천
마디
페이스북을
스포츠서울
##시스템이
군에
톰
다시는
물의를
2013년부터
##시로
기초자산으로
추천을
여기에는
##처분을
완화를
형태를
도발을
이가
##주가지
국가보안
통하여
##간이
양주
용기를
건설에
##식도
구동
신뢰가
23개
##원가
생각도
개인정보를
맡았던
성향의
습관
반정부
결혼합니다
##대한민
##초에
산자
##배치
개교
분해
##과정에
##지역인
##휴일
##현이
##설턴
유지를
영화는
6시까지
##구청장은
##터에서
개편을
마니아
해외진출
##측과
알렉
가열
##발적으로
##현정
요르
소요되는
##때문에
현실이
표현했다
품목을
가슴에
##보호법
##티아
경선을
개선하기
증정하는
부담은
##었죠
남해안
##하는지
자전거를
##펑
신한금융투자
센서
주석은
경로를
오세훈
이행을
노린
문제점
피부가
2만원
동쪽
농약
##우나
간첩
사람에
맛볼
유모
##철이
인선
지역별로는
추진한다고
건물에
논문을
강변
##로서의
풍성
부부의
시행한다고
예쁜
##시키며
하동
광우병
신생아
##심에서
개가
초월
치다
##시스템에
완치
라인업을
##펀드의
##지역이
전체회의를
하려는
존슨
##원대
평소보다
옮겨져
나뉘어
2분
진술했다
쌀쌀
셀프
촉촉
김범
##ᆺ지
지나가
엄중한
하니까
포르투갈
취득한
그래야
##운동의
폐지를
가치와
북중
##대해
##지구에
김영란
선수는
발길이
##비상
##리라고
태권도
달성한
##이지리아
1기
벌인다
##게임즈
##유공자
통계를
이해하기
##흠
환경과
스승
형성된
등장해
인도적
##흡을
참석자들은
##공원을
##000억원에
자리잡고
도약을
굳건
까닭
지원도
진해
이르렀다
4위
인스타그램
계단
##는다는
정쟁
참고인
점유율이
도로에서
통증을
김영삼
사막
원동
증거인
5시간
주인공은
설명하는
##출입
한국산업
##시죠
국회의원이
가할
사양
가족들은
연례
펀드에
미쳤다
##적십자
걸었다
향하는
표했다
표방
혼다
지급된다
금융위는
한빛
##축제가
경관
매력이
나왔다고
스타일링
마곡
3개월간
수려
##르도
표현이
노스
##크루
코스피200
##편성
고졸
추돌
여타
회담이
##병원의
혼조
8일까지
##점포
전문성
조용히
02398
창출에
생기면
##미에
사례다
고위공
##동네
설명할
노동자의
별개로
활용될
하라고
##영역
##출연
요청하는
대한항공은
먹은
역설했다
자율적으로
말하며
1만5
사라지고
##기금을
##본문
상여
##한도
예고했다
서비스인
싶지
무역전쟁
오리지널
##상위
##데도
여당은
지방이
##쓰레
친박계
정영
##오후
##ᆯ리즘
사표를
##빼
##이닷컴
지정을
인사말을
미르
통장
##했음을
거야
않아서
합동으로
져야
가정에서
1년이
껍
스틸
기사가
##연설을
공개하는
아이는
진행하며
흑자전환
5명의
출시될
얘기도
노리는
대책은
일축했다
후폭
이목을
행자
2박
올해보다
디바이
2025년
달콤한
11월까지
테마로
##소영
평상
##들보다
성관계
환자와
5가지
##의의
사운드
사외이
지속되는
박민
##광다이
근린
맛집
경신했다
그로
국빈
##이므로
##놓았다
지금보다
콘크리트
운영하며
생산에
##갤러
##처로
모집한다고
한국아
예상치를
거취
몸의
휴대용
소통의
대학과
##기사문의
도입에
키움증권
과실
6일까지
센터를
보일러
##스텍
인지도
정면으로
기자들에게
기대감
주제를
중산층
밸런
8월까지
도울
진행돼
현대차그룹
그늘
실형을
협상의
높다며
포기하고
##정수
첨예
쿠폰을
수사는
대응하고
기여하고
친구와
뉴스1서울뉴스1
천주교
##증시
관리와
##뉴타운
가르쳐
##계절
김연아
수목
불법으로
치는
연결되는
변형
아이폰5
기밀
속보
##약한
외국인들이
시도를
두피
##문화재단
그릴
리베이
##시위
성균관대
추진되고
운영되는
선언을
시행한
조언을
제공했다
##머징
##위원으로
해경은
집계한
##국악
저조한
김양
##행에
##평의
한국도로
##150
요리를
돌이
행정부의
##4월
포켓
접종
열정을
대한상의
공개를
달하고
안전자산
몰입
##400
투자하고
전화로
경기장
과태료를
소홀히
옥수수
국립중앙
콜롬비아
##댐
모델의
여드름
##프랑스
##쎄
##급이
경쟁에
최대주
없었지만
공언
##억달러약
호재로
문경
썰
##회장의
감세
루이
드릴
업소
국제기구
달러당
부인하고
컬렉션
살던
명확하게
썩
재연
있습니까
혼인
예방접
##기야
퍼부
해달라고
전광
실시된다
나서기로
선체
달리고
등극
##솥
쓰기
세번째
##여건이
##8억
##지방법
발휘할
동력을
편안하게
##대형
판결에
시장도
부안
북한에서
수치가
##협정을
벤치마킹
황사
개회
##사례를
예선
##색으로
일한
주니어
사명
소비자물
전반을
구글의
듣기
무지
가리지
상품권을
됐으면
중징
진천
끌어내
일시적인
되지만
##금도
연설에서
실은
전기요금
##제약은
남경필
법의
에릭
##차이나
마감됐다
강화한다
서로를
당첨자
행렬
워크아웃
의원들
인원을
관행을
지루
전문인력
아랍에미
고기압의
한국거래소
예쁘
알레르기
접견
것과는
극복할
내신
가사
호가
성장률은
활짝
신혼부부
마는
무덤
걷고
의혹도
##단기
##운하
경기는
일부러
부동산을
유방암
##자들도
전가
충청권
건국대
경복
##였는데
제압
##축제를
52주
데스크
부당하게
##현의
국가로
##다를
일원에서
복제
묘사
몬스터
증가세가
확대한다
전셋값
##록에
모멘텀이
발굴하고
악재가
천명
표절
경쟁에서
매매가
거는
낮고
버냉
750
다양하고
용어
밝혔지만
하향조정
초음
##버렸다
군수는
팔을
남원
##장으로서
이외의
환전
##보라
영상은
기대되고
##썸
즐겁다
영덕
20억
##시스템은
업데이트를
##중기
무언
##브는
어디로
한번에
##데이터방송
##페이지
캠퍼
##꿔
전시장
지속하고
턱없이
방안으로
포트폴리오를
양사는
##복구
##통의
106
중장년
##폐지
이면
도전을
평가받고
보였다고
14분기
##슈퍼
유상증자
고작
강남권
어렵지
군민
무게가
행사에서는
장담
영화관
양당
볼때
1명을
지원금을
관광객을
투자로
3000여
입주자
한지
투자자들에게
##했더니
처럼
구할
막바지
메이커
반경
통치
##캉
펼치
##망과
##봉을
사용했다
그치고
사적
못했고
시선
##11월
##05
로고
기대하는
크기가
##되지는
곤충
##체결
공급과
컨텐츠
이견
대에
1서울뉴스1
명칭을
복지부는
필터
이들에
서비스데이터방송
##9월
위해서라도
##포항
거래대금은
기본으로
총학생
강화하기로
##시대를
제한이
여론조사에서
개선되고
##골이
3의
##주의와
##동생
아나운서
8명이
##셀로나
##보험료
모델하우
현실이다
도와주는
계좌를
가동을
직거래
여야의
생명의
남다른
재보선
토론회에서
일부에서는
표현의
알려지고
갱신
노회
비상이
##푼
극동
명의의
움직이고
##타로
비로소
일으키고
##셨다
6배
덥
##수기자
트럼프의
순매도했다
아반떼
##플라이
##되나
당부했습니다
##제표
##기업들의
증가율을
창단
지지부진
##41기사문의
동반한
##사령부
딥
인포
유감을
##비트
보장을
의상
##가들이
##이민
지급한
충격이
부산뉴시스
##불을
일평균
선풍
늘었다고
것이냐
않고도
##끌
에드
##결산
##크의
5위
수지
성폭행한
푹
111
한미일
1에
끼고
##기구를
내렸다고
당사의
도로가
증세를
혈관
제8
받아왔다
한도를
효과로
벌이
##참을
체인
결혼식
전월대비
카드로
카라
##발언을
정당의
수준이었다
코카
수익성을
##ᆯ레이션
전액을
이례적인
발맞
김철
변화하는
썬
압도적인
추진해야
해적
행사할
도둑
중앙대
직간접
직접적으로
찾아내
모닝
수혜를
4백
부산대
닛케이
고려하지
건조한
중국으로
깊게
##정화
러시아와
갖춰야
알리바바
이도
문구
잔디
대구의
##옛
마이너
가이드라인을
지장이
부합하는
##하려던
##방과
사정을
근로자가
입에
순조롭게
무대에서
취지다
##아프리카
운동이
무너져
여배우
데에
비무장
의결했다
##직업
정치개혁
업종은
국민투표
언급을
실효성
부산을
##걸음을
총괄하는
나만의
많았던
즈
##수익을
경악
경진
소비자를
과감히
구호를
상승했고
고객들은
참가했다
##건에서
전후로
유지될
부속
끝났다
울진
꽃을
##카드가
에이스
노력해야
##개발원
승마
응답자
현대기아차
##만5000원
##금액의
##드려
역사적인
전병
##정신을
##브를
시의회
뒀다
##류와
연임
잦아
곳의
작용한
##극복
때다
##타가
##9만
기자와
다크
경쟁사
경보
파문이
만족도가
비상장
가만히
맵
견학
2007년부터
세탁기
했어요
아이파크
기초연금
수비
해준다
영도
들어올
죽어
후지
시와
무사히
관계자의
우선협상대상
윤영
일어나고
땀
양성을
가정용
내부적으로
작성해
국민은행은
전략은
규모인
책의
작고
정신이
중점적으로
직후인
소설가
하였다
들어왔다
동조
현금으로
확인됐다고
##거리에
있느냐는
통보를
##센스
다산
알아서
투자증권은
번째는
절충
몰두
거칠
창의적
변동성
가구를
식별
통폐합
##콤은
엔지니어
연립
속옷
##과학원
트랜스
상품과
경상수지
해소하고
##로보
2015년까지
취재진
도시철도
증세
모습도
청약을
당선자는
파면
리치
말라는
신사업
뇌물수수
급격하게
##돌이
##ᆺ아
농성
성산
확인해야
애완
형상
위해서도
생체
시판
##해왔던
변경을
남편의
우려에
전향
발전의
상태였다
지원으로
3월에
##세트를
격상
탑재해
##메드
계기
현저히
펀캐스트
부하
아찔한
해줄
부대변
통합당
요원
온라인뉴스팀
##나가고
380
##특정
똑똑
펀캐스트세계를
##타당
딸기
규모와
띄게
촉구했습니다
못한다는
청라
나이지리아
위협에
소속사
쑥
군포
시멘트
낸다
박수를
##엑스포
경영권을
유발하는
##애플
박인
카메
##세력이
섣
상황에서도
경제위기
문제점이
##노선
녹아
공약으로
이용자의
벗어날
아사히
이하인
오랜만에
분석에
##친이
법정에서
지식경제부
장의
김한길
##세일
##성모
부산연합뉴스
##되었습니다
##소환
107
상생협력
꽃이
국제선
고품질
방위비
무분별한
수서
서거
##다오
도입하고
1000원
##위한
업무가
자신은
리스
샤오
제때
화제의
날은
수요일
감행
초점이
임시국회
셈이
진동
것이지만
운행을
##제과
만장일
브리
##신라
끌려
##회생
심리를
서울시내
결선
1곳
엉뚱
트럼프는
직격탄을
그릇
성공적
리니지
비판도
##플로
주가의
광주뉴시스
에게
급락했다
근원
증거인멸
가지를
동계
약국
지나는
매장에
기숙사
2주간
##브란스
폭스
의사결
추석을
국가들이
진술한
##피크
차지할
궁금증
됐지만
파주시
11년
리튜
사서
기차
버냉키
##범죄수사
##죄로
도로교통
##단지에
##전문대학원
근무한
경품을
최진
##틸리티
##파리
##지수를
분노를
공무원들이
적용돼
동래
회견
동국대
보성
구청장은
전철
민경
한승
김포공항
금지하고
스탠딩
전립
역사에
참전
불매
정부서울청사에서
부행
##ᆯ리스
축제가
##걸이
사이클
##층으로
질환을
##관리공단
포인트로
건강기능식품
친인
##3백
##관세
분량의
대선주
은행들의
한국타이어
삼양
##속으로
사라졌다
##어디
피고인
윤석열
##뉴욕
삼겹
상당부분
김문수
운세
1분기에
패키지를
배우자
전폭
##책은
암살
한신
진출해
적자가
패소
##램
진단그림
##기준에
체결을
통계청
지점을
안전보장이
불가능하다
강화될
인구는
##미와
##군에서
강동구
장래
호황
학자금
수만
2조원
##경기가
책임자
모바일앱
서울지방
기대하기
##문화회관
위치하고
11만
압류
##직은
털어놨다
도가
흉기를
무너진
공장이
공방이
##캐슬
선수들의
트렌
시국
소득공제
##부인과
논설
세션
직권남용
풍요
수사하고
갇혀
지적한다
긴장을
킨텍스
##사주
개발도상
타격이
자체는
##5월
떠넘
13년
##파와
세계로
증권사의
해양수산부
예민
조윤
##론도
구석
됐
담임
전문가와
센터는
맡는
자체에
##째로
비판했습니다
##청와대
금융통화
장으로
##석유화학
##되길
앱스토어
최태원
재수
##ᅣ오
17대
반대를
시작했고
4년제
지갑
##단지는
##뛰
불에
시즌을
예멘
##장비를
정부세종
있거든요
##회사와
소신
계획대로
의식한
단계를
21대
##하였으며
어닝
##부부장판사
##처드
##내과
날씨를
설계를
영역에서
한국토지주택
향토
##루를
응하지
##껑
##사드
없음을
##특별위원회
##자원을
##연금을
재료를
인정받은
나오기
잃지
##취소
거울
##구호
##선언을
요청이
면접을
감성을
제거하는
##보존
입장입니다
학위를
생활건강
한미약품
의뢰해
프란
진행을
##새누리당
지원하겠다고
##로에서
1800
일대를
되게
매출액과
워크쇼
이산화탄소
무너지
통신에
##진다면
사업화
손님이
국민건강보험
##영의
세대의
콘셉트
##으려면
로스앤젤레스
조인
한국인의
전환할
있어서다
두달
사회는
##삐
사실로
참가자들이
스님
초빙
획득한
공감을
유시민
최저치를
신산업
터보
과감하게
##소인
이견을
관계자도
혼란이
##예측
흔한
##서울시
파악하는
특검은
##손실을
만회
하나씩
안의
사용될
##신문이
##선까지
##하죠
사이트에서
수해
밑으로
교부
##측근
학교와
스피드
5명을
탈피
태극기
방출
동창
소개한
말과
청년들이
##평창
든든한
##인구가
가닥
시작한다고
시그니
최연
##벤츠
##1백
의료비
##카드로
사고의
사장으로
국면
##원까지
챌린
부진을
탄생한
좁아
에프
설치했다
현대산업개발
흔적이
##실무
파행
식당에서
농업기술
강점을
우버
높기
선고한
이동하는
양심
과학적
##버섯
##병우
굶
##영국
고조되고
마련한다
고강도
##차피
거나
통해서도
외교장관
##통과
스포츠조선
내에서도
춤을
합병을
라이선스
들었다고
한차례
실세
개인적
환원
##이었다는
수협
교민
숫자가
급기야
성장해
습득
국가인권
공예
##박을
개점
구인
##규모를
인준
##변이
비롯된
바다에
달러가
거북
퍼블리
##세력의
##하라며
독보
##프라임
내년까지
급상승
내걸고
경제민주화
##배송
소망
지지율은
리스크를
내렸습니다
9조
비키
협상에서
육박하는
행정부가
구축한
외부에
선도하는
앞다
오징
##연구원의
붓
늑
종합주가지
엎
##거진
평가할
##해섭
사연
정병
차지한다
모처럼
교내
클로
김모씨
##현주
처리에
확산으로
이슈의
대공
글에서
수사권
##조치가
친이
형사처벌
때를
대마
새삼
소외된
플레
오쇼핑
방송사
돕는다
것이지
공격에
반영하고
2시부터
깨달
설사
##자산관리
재판에서
전동차
토양
##음의
프로그램인
이씨가
파문
##러닝
6도
선정을
건립을
스티커
기술력
태워
만기가
지표가
당혹
부사장이
논의한
건지
##데시
사업비를
내밀
조희
분야가
파리바
##방재
당선자
검찰개혁
모터쇼
##교수는
##시장에서는
누리고
원대
24개
미치고
다이아몬드
##관리가
블록체
과거에는
취득세
##구제
개그맨
소셜미디어
나라에서
블로
제1야
부과하는
넘겼다
부쩍
구간에
비대위
3위를
의제
사채
##3월
벽을
연이
##파트너
예방할
금융당국은
출신이
연말정산
##연하게
짧아
조사했다
##정리
##케인
각오를
인터내셔널
폭넓게
행동이
늦어
모던
부산국제
있었으며
경제적인
##고발
시공사
발돋
##회도
창출할
우려된다
건물의
생명과
판결했다
학기
백제
제2회
##직으로
공인인증
400만
시를
##마리가
도지사
잃어버린
뉴딜
이유에서다
##시했다
##피부
생활이
이웃을
##레이트
적을
홍콩의
누구보다
잔류
봄철
주역
플래시
휴대폰을
언론인
알카
교복
대통령과의
농도는
초강
명목
##주체
사귀
수반
본다며
사안을
법률에
##시설도
아내와
아랍에미리트
들었습니다
##카와
##됐다가
악화로
생산자
풀어야
이형
수사와
장소에
##염의
##철강
공동성
쪼개
세계파이낸스
정도였다
불안을
##우선
성실히
##방안에
오만
일교
합격자
법정관리
소통하는
이머징
##그렇
예의주시
무혐의
시각도
##베이거
##기관에서
악의
원형
표명했다
날카
한약
##주며
잠복
50개
##가지를
주위
용역을
변동이
투자의견은
적당한
##책에
##회사로
시신이
순위를
제반
##푸르
흰색
컨퍼런스
걱정을
제도로
주식방송
길러
##분부터
컴퓨팅
핵실험을
지향하는
용서
원내수석부
소재의
표현하는
기법전수
5월까지
돼지고기
##귤
##꽁
노해섭
##주들의
기용
##터스
6시간
##뉴스봇
##았다며
돌파한
##대학교는
해결될
##연구소의
은행들은
일삼
제3의
##출신
연휴를
##레나
두꺼
한국아이닷컴
##캐스터
개발자
미치
출혈
인수에
##이다고
재미있게
서경뉴스봇
##불안
모드
백인
셔츠
노력과
성주
두터
결실을
550
운영한
##버리는
##수업
##7월
6회
소비자물가
노력하는
인수위
통하는
과정의
콰
트럼프가
부른다
##프레스
추천한
불편이
##서비스에
구매를
##사리
법제사법
소통과
조사와
##고루
입당
떼어
##홀로
##시하는
##분권
아시안게임
9월에
##디움
노회찬
끝내고
남아공
격인
볼륨
지방에
##하느라
크라이
공권
측면에서는
인피니
모이는
##팟
아닙니까
유럽중앙
등락
##확보
현대그룹
##개국에
안은
##난에
떠날
모른다는
어차피
연결돼
박창
포괄적
2000200
업계에서
하락해
배양
정기국
중소기업과
##센터장은
재정부
베타
점포를
##오션
##남북
던졌다
렉
착각
소환해
관계자들의
사스
상기
도시에서
의대
관여한
거리로
이춘
##프닝
189
직장을
##2차
원심을
산유
사회적으로
식이
투명성
재건
한국산
옮기는
나라에
쪽에서
총액
흡입
회의에서는
후보들이
사용한다
이만
충무
단양
반찬
##지원과
##예비
응답했다
쓰러져
폐막
예견
20년간
##공동모금
파악한
##평론가
##스크린
탐구
느껴지는
주택시장
직원과
악화될
이완구
떠오르는
지급을
마음대로
유지되고
4월에
파이낸셜타임
감소세를
5회
마을을
##베스
우려는
행장은
발생했다고
인체에
##억엔
다친
운동에
어머니는
여기저
영재
##성기
##닐라
관통
##기정통
분양한다
##ᅱᆫ
##접속
지역인
의심되는
양구
탈북자
김두
80여
##군인
옵티
##전공
발견해
시트
보람
기업도
점진적으로
내무
판타
노력으로
필로
지켜보고
인맥
광대
만들어져
협약에
패러다임
지름
13만
스마트시티
##주신
민원이
호평
지방선거에서
투입된
적임
질서
낳은
매트
성형외과
##어드
부위에
밤부터
방통위
##면역
계속된
##시에는
현대차가
발생했습니다
달을
##쪽에서
수뇌
##00원을
관계자들을
클러스터
##희기자
접근을
##매가
머리카
설비를
힙
##00억원에
장사
스마트폰에
집계됐다고
폭풍
도착해
평가된다
금방
왔으며
떨어지
필수적인
##사항이
노동시장
한국교
달이
캠페인은
걸림돌이
임직원이
약간의
실종된
##제리
낙하산
쌍둥이
멧
지표를
경기도가
필기
선정할
코트
산업자원
늘린
상승하며
후발
단어를
양천구
보이기
인도의
영위
의해서
준비할
무사
연도
재정비
2월까지
빠르면
삶은
취지에서
2006년부터
쥐고
푸짐한
앰
##대투
언제까지
경제적으로
##제품의
국내로
##사회에
발의한
오해를
수은
동종
실패했다
##툴
판매되고
연속으로
번복
분양에
##방송통신
건보
차지해
지혜를
##더블
밤새
결합해
##폭행
박명
방제
실패를
코엑스에서
##수지는
싸우
편리하다
거품
이해와
손목
코로나19가
##00억원을
폭행한
##일로부터
화제뉴스
불출마
알림
시도가
##께서는
변수로
도교육청
곡물
##안에서
##민간
##학교는
정착을
전승
촉각을
한국지에
김정남
개량
국가들의
가격과
만취
미흡한
##티의
##사망
노년
어렵지만
알아보겠습니다
삼성화재
##구역을
운영이
엔터
수련
방통위는
무더기로
임플란
희망이
책임지고
한몫
나서지
##자녀
미국과의
##물품
##문제는
침범
수출에
생보
대처할
대웅
행보에
내건
합차
날개
##탄이
화면에
고용창출
시니어
1억원을
단장
보스턴
혐의다
가정에
직선
##간부
제10
코리아는
원주시
10월에
원서
전대
지금이
지방정부
대대적으로
시설에
스패
절대로
##었는지
기업에서
내디
삼성과
4강
종북
정몽구
맞추고
기뻐
프로젝트의
하마
8월에
캐스팅
주면
극단적인
기부금
쌍용자동차
침대
##투자자
##코너
원내대표의
기무
허술
상사
따르
청문회를
##조원으로
한국도
아이들과
화백
목소리로
##퓰리즘
자처
##계산
##덮
못지않
고온
뜨겁게
지금처럼
손수
##의견
수강생
##김영
기득권
##위기가
오르면
##놈
다투
태광
만들겠다는
원에서
##행사로
사유가
경기도의
플래그
강렬한
##9000
대가를
바르셀로나
산하기
##냉장
함정
##하려다
사고에
##오마이뉴스
화를
응답은
전국경제인
이며
##답을
##나들목
7월까지
##항쟁
골고루
90년대
##개사
북한과의
충성
##버터
전역에
학생들과
부산에
대표에
은행을
##50원에
촌철
태운
인정해
##쭉
보이코
리버
대구에서
##농산물
달아난
##대성
##한지
명단에
맥도날
안에는
##위원을
미술관
이슈로
전쟁의
##문제로
됐을
살이
##비용은
2022년까지
공용
미지수다
텔레콤과
어플리
일들이
주민들
##교육지원
이양
뷔
고급스러운
구단
##극을
노리고
이용을
##감소
##화보
세대가
진전을
프랑크
발판을
효율을
원재료
엘리베이터
##코리아가
정종
##날이
장애가
넷째
견지
범위가
차량으로
##공고
##전문가들은
실리콘밸리
##속도
위반으로
뇌졸중
돌아다니
할리우드
어리
##분야에서
방과후
활용하면
기본계획
시집
##인하
어때
##질과
쏜
대통령직
취지에
빛나는
마카오
##우와
구입하는
당면
생기고
명분
##감의
펴고
##플랫폼
제시된
성과는
분향
간과
8시간
제3차
스폰
정상회담이
##분야에
고질
이름의
무슬림
합의했다고
휴업
투명성을
라스베이거
대기오염
거론하며
고도화
상승과
성찰
2017년까지
환기
입어
##지키
참가를
함유된
##체포
재즈
허물
##현석
##례로
누리과정
사인
고3
수락
바그
항목을
반부패
얘기는
어젯밤
연행
문자를
제소
비슷하다
지도를
홈에서
나로
불균형
##정권
물밑
공영방송
##희가
창출과
나무를
##00여명의
##심리를
것이나
능력과
일간지
한국사
##토의
성수기
국가안전
##카의
겪어
노려
구글은
결단
세상에서
래미안
관측된다
밝혀야
통상임금
3일까지
##사업비
모색하고
주권
순이익이
정식으로
고유가
해리
주목됩니다
첫날인
정부여
여부도
곱
##기구인
##는다면
각료
##안정을
열기가
방법에
##종과
113
3사
사들인
##빌리
2005년부터
5000만
##총액
논의한다
나아갈
##놓는
관계로
##조건을
##바라
전화가
악화된
##어에
벌금을
허니
쓰나
학문
다른기사
황당
##추세
자연의
통보했다
배부
##주차장
실장
물가가
##홉
##희의
##작년
여중
맡을
5를
##폼
제출받은
2일까지
차가운
##레븐
##대상을
같고
주관한
근무를
##협회장
##어머니
걸그룹
단골
기록이
##비밀
고용보험
##인사를
옥천
##방법을
견조한
듣지
햇빛
추세에
##시스템과
까다로운
방문은
##유발
자동차부품
명실상
외교관
순자산
지역에는
##연구원에
메시지가
한껏
최병
민심
확고히
##처리를
##한의
볶
팜
줄었고
##벳
##뜸
목회
수평
기침
하와이
혈중
맞벌이
내연
##루는
최승
##두천
장흥
하락하는
##속의
발돋움
부족하다는
뒤집어
보물
할머니가
##청탁
브뤼
반군
자발적인
##티콘
##베리아
의사결정
지칭
초과하는
##운동이
비결
미국에서는
유수
##항은
##협회의
사업에서
12월에
행사장
##옵
재개를
##호흡기증후군
##날로그
9000
본다면
당사에서
무선인터넷
##베트남
##완전
돌려보
순수한
마련이다
사전예약
세울
시장조사
##증상
푸르지오
단편
규모도
내역
##대한민국
조종사
##민원
기대한다며
호흡을
동백
휠체
장애를
움직임은
로펌
그들을
##방으로
설레
##과제를
##휴게
표정으로
1년여
##사회가
공방을
##법도
좋지만
##사로서
##2의
고용을
흥미로운
역부족
법원에서
음주운
쉬는
객관적인
개각
잘하는
묵묵
마케팅에
##영양
높습니다
##상품으로
이용자들이
##짐에
##머니투데이
7도
게임으로
135
기대감에
작업은
행태를
바라보고
추기
사가
펀드가
총을
이동해
방안과
집주
리뷰
국무총리가
30명
##건수는
##사자
대상인
선물세트
치명적인
구간에서
5차
##단장은
##줄을
국민참여
##특보가
리츠
##청주
장군
##강사
관리감독
##절로
##리스크
##티이미지
##쪼
민원을
액면
##역세권
##의료원
캐피탈
한국무역
뛰어든
문제라며
##마한
전년동월
4일까지
경제활동
동종목의
칠곡
고교생
정용
남편과
##쓰고
마술
불투명한
전시회를
앞을
헌법재판소
소행
코스닥지수는
인물을
##기술이
이마트는
목적은
대검찰청
했는지
##시대의
현황과
##라톤
전환했다
피곤
유발할
##뽀
동지
상승률은
부모와
약세로
##부문은
초연
대책에
볼턴
투자자가
검진
##금액을
뜨거워
김중
650
##소스
포기한
도시바
변함이
문희상
##현안
국왕
제3회
방송인
정신건강
태우고
판단하는
다큐멘터리
윤창
평가에
팀의
영화가
기반한
##하기보다는
2014년부터
편향
발행을
검증된
##능력시험
거두고
내역을
나오자
명도
쏟아지는
전문업체
##타리
평생교육
공략을
인기만화
2000만
랭킹
경희대
원칙으로
끊임없는
수개월
관련해선
##롭다
##팝
배신
이루어지고
앵
불안이
##국이다
재원을
비해서는
흐리고
교양
##째인
받았다며
잠재적
서울고법
단지가
종신
캠코
##항의
선수의
##호르몬
편에
##아무개
범죄에
##모터쇼
슈퍼마켓
##바논
##일드
기술력과
주식시
편집자
엽
##화돼
푸르
개발사업
활동은
##티가
해소할
##습관
표정을
남대문
##바람이
철회를
##문제와
##었는데요
##20년
8도
비리를
의사의
밤을
이루어질
한국과학기술
정산
고소한
니혼
출입국
수익형
감독을
해서는
상임고
우리은행은
##시켰다고
안주
동요
뉴미디어
##성에서
추가경정예산
맑고
##리라는
형성돼
매경닷컴
폭설
100일
아동학대
##진행
유비
공로를
번거
입주를
##전문점
보편적
포함될
전기자동차
보온
행사의
카드는
자신도
거지
표적
가져가
##재현
##개발에
대한민국이
성동구
오송
영원히
방대한
##2조
아동청소년
실태조사
##대도
역을
총영
특별검사
5월에
채로
방법도
통과를
이학
출시한다
변호사를
올라왔다
히어로
장기적
놓치지
##2년생
국방부가
##프라이즈
안된다는
살릴
##실장이
주공
입출
공매
최고위
포함하는
함께하니
나뉜다
리처드
법원행정
식재
전속
롬
가족은
비방
##사진은
대북정책
##원기자
##역량을
만약에
내외의
행위로
홍보대
##라이언
주석의
심폐
##웨이트
쪽이
유도하고
꼼꼼하게
적재
초까지
신용보증
접촉한
경주시
형사합의
##처장
모은다
##실습
##핫
##바오
택시를
칼텍스
상한가를
출근길
참가한다
길고
##4백
로컬
동작구
##폐기물
우월
도난
축제의
##이다라고
시행되는
버튼을
연계된
4분기에
##전인
과기정통
##숙이
자동차의
화재로
##대상이
엿볼
수단이
해결책을
결정됐다
컷
금융시장의
제기하는
북서
저작권자이데일리
지중
애를
냄새가
불로
분비
불어나
돈의
사라질
완료되면
##번의
쓰여
##지오
갖지
##가을
세정
코인
돌발
이씨
추가했다
액티브
##란한
##감찰
사범
##율과
엄격히
현주
##가이드
끼쳐
앞뒤
자고
강등
보좌관
고효율
나갔다
안타깝게
쉐보레
이재오
폭행을
##단다
넷플리
센터장은
정부로부터
##대학의
제도개선
언급하지
멜라
표창을
##흐름
##프와
유산균
표류
수자원
행사다
4곳
여론조사를
윤성
밝히며
공격이
시황
보건복지부는
바비
##화도
국가정보원
##스퀘어
10위
슬라이
구치
##진해
차고
##평에
필요해
##2000원
반대의
낙태
추천하는
##광다이오드
사회로
주말에
##억원대
한국은행은
스트리밍
착안
팝업
분양권
일어났다
3세대
조치다
국민의당은
밤사이
의회가
유출된
3차원
겁
캐스터
관심도
콘도
외교통상부
꿰
##첸
특강을
사흘간
등록한
단장은
경계를
결과라고
있었는지
교재
포획
##대1
##켄
##전자는
미투
경의
비공식
##대왕
##구입
##바퀴
##콥
##행사에
신용대출
##보조금
해소될
빠지는
런칭
지목된
##자에서
건강관리
통일을
##되었으며
구간은
곤두세
보십니까
났습니다
문건을
##그레
절감할
사연을
호반
렌터카
생각으로
10명이
손익
##수도권
전달했다고
2006
침체로
축산물
자유한국당은
촌철살인
중국과의
불합리한
##했죠
삼성바이오로직
제11
따르는
주제는
직원들과
사이즈
##가중처벌
몰리면서
경제자유구역
##합창
1600
논의될
마음은
느끼지
1년을
추진될
개념이
한동
기관을
안녕하세요
섞어
##사고를
밝혀지지
##두가
보호하고
형성하고
진행중인
없는지
전략과
##성동
판매해
역할과
리듬
시작하면서
단거리
어머니의
그다지
사항이
논의에
##사업체
세금이
##틀을
챙기는
가나
##ᆯ슨
##요금을
라인업
명명
여사는
법적인
##카드의
백운
##취약
그렇죠
붙잡아
성금
##시스템의
시대적
스스로를
예측했다
##타당성
전반의
공급한다
유도할
4월까지
340
연석
부산경남
등장한다
입각
템
기조가
두뇌
더해져
특혜를
##핫이슈
출시해
관계자를
애플리케이션을
##당인
쿡
분야에서는
신주
논의는
쟁점이
자동차정보
30억
##ᆮ날
때문이었다
고덕
##택지
##완종
김덕
##8월
영산
##비법
수상자로
진전이
매체는
환경오염
##분담
권한이
아날로그
감금
향상과
말씀하신
내리지
빼돌린
##가스를
##190
한은이
##ᇀ이
이해하는
##호남
꿈이
에피소
##디가
이더리
재산이
돌아선
부담해야
시의원
기쁨을
조사하는
##아세
피고인이
때에
종부세
하루빨리
식탁
혁신의
급속도로
여사
물은
병사
학살
상승은
비축
시민사회단체
관계자와
스마트폰의
확대된다
남북이
자연과
이씨의
승무
가디언
1세대
서포터
##호주
알뜰폰
해주고
전화번호
합친
##오면
일어나지
문구를
처우
하루를
욕설
##체육관에서
##버리지
네오위즈
예산안을
구명
시행한다
##ᇀ은
유람
시위에
##전주
치우
판매된
그랜저
카다
준비해야
악재로
성능이
막내
치중
최모
##요리
캐리
각급
##남녀
생선
아름다움을
위주
##담한
##겠고요
1위는
##신뢰
##스코리아
##30분께
유정
##시경
게시판에
##지엄
##마에
숨겨진
빠져나가
골프뉴스
가족들의
시리즈를
참석을
있는데도
올라가는
##기반을
##보험을
인류의
우선순
기록했으며
##상선
사회적기업
실시되는
종식
추방
승용차를
부동산소식
비즈니
자본금
네티즌핫이슈
##앤진실
##증권의
##루머앤진실
생산되는
##구요
##기관리
그러니
##종목은
결정하고
선수를
결정으로
##명대
피트니스
##차원에서
팀은
않겠다
해석을
논의하기
중저가
1위인
자동차정보세계를
##림으로
회원이
##층과
##서다
단지로
일상을
공동의
지켜본
서민금융
##물이다
농수산물
해볼
신속하고
##달러약
나이트
##니와
국내의
수장
##크레
발견되지
실업률은
아파트로
빌린
세력을
인사에
애써
2005
##펀딩
진지하게
선관위
정보의
운운
##립대
##경제적
여고생
##한나라
포기하지
부정부
당사자
저마다
이공계
##소독
신용등급을
해준
##은혜
담화
전입
무시한
##재원
선정하는
먹기
##였으며
##만인
햄버
한자리에
짜리
두지
##투자신탁
놓아
학위
미끄러
가시화
##연봉
선장
더불어민주당은
무너뜨
모델에
그거
발행하는
##니지먼트
시작을
상장기업
조심스럽게
##인으로서
##사업인
개포
갖출
파트너십을
기울여야
다닐
국보
성명서를
톈
1건
##예탁
버거
달랐다
단풍
##협을
##톤의
쫓겨
전월보다
절단
##사회는
2015년부터
다르다고
타이밍
계약금
20개국
갖춰져
##텍사스
상대방
##산단
양념
##연극
그었다
담을
##메이드
노동자들의
4주
##여론
힐스테이트
국립과학
축제는
##환을
중에도
몰리고
가로챈
세법
##진다는
액세서리
체제가
대화에
김규
자매결
##란도
홍영
벗고
##서비스는
##해줘
정권은
##경선
살아나
정찰
꽁
##타오
통관
도입이
##포인트를
리얼타임
증가는
##사이트를
##아침
불륜
쏟아지고
직원들
입상
급락한
사용하기
조짐
집중된
확보와
##복음
공학
생산량
난항을
안상수
##지영
##용석
수도권에
##사이클
경사
탈레반
아부
그다음에
렌즈
##서구
가구에
##뿌리
제왕
흐름은
넘길
재킷
옥상
폐쇄회로
증시분석
사진출처
##피해를
기관투자가
차지했고
자문을
교감
일시적
규격
환호
접어든
정액
유니버
가졌다고
지방을
씨도
묶여
##률과
스프링
방향이
거부하는
헌법에
150여
기금을
하순
재앙
서울경제에서
하락했고
이전의
춘천시
의도를
블루투스
##이슈팀
공세
산업은
전통의
팬들의
보드
정권에
절제
##9억
##드래곤
##뿐이다
강경한
서귀포시
창녕
기자이
개정된
우려와
##되었고
##기자가
안티
사용되고
평창올림픽
중견기업
##소수
의도로
노예
물질을
붙인
적용됐다
##5년생
##부정
법조계
헝그리
양파
여대생
시뮬레이션
고향인
우리와
자아냈다
국면에
4분의
숙명
##루에
진열
머릿
포퓰리즘
##트인
##비중이
데일리안
주문이
##현수
##마와
대회가
들어가면
표시했다
차단하는
비율로
얻지
요인을
이튿날
갤
##지역과
##경기자
1일까지
입주민
##수준을
저수
##객들이
리테일
쯤
##구도
권력의
가져온
초유의
50분
제지
해수욕장
않았으나
법정에
시리즈는
역할은
기념식
의미는
정례브리핑
도전하는
협상은
혁신과
벡스
##시기를
범위에서
퀸
건데요
정치권에
##준의
##은행에
싱크탱크
##호수
수교
충돌이
경복궁
마무리하고
풍경을
급부상
##레이터
나와서
##문화유산
첨부
결과와
채택했다
국회법
찔러
샀다
생명과학
사단법인
글과
##자리에서
커넥
선착순으로
주식시세도
아시아의
시행된다
단기간
바로가기이제
정기국회
피하고
낀
##마이크로
34분기
일깨
##당으로
제3자
조정할
변함
잉글
전력이
공개해
문구가
범정부
##츄
한국당이
친척
##병원과
창출하는
기간제
말합니다
주문을
오르내
##일지
펌
##그룹과
피하는
##삼성전자
강세가
1억5
이적
미처
샐러
답변했다
시민을
르네
회부
부위를
조례를
진한
최측근
헬리
##똥
먼바다
요구된다
##연기자
방수
유무선
과징금을
##과열
우즈베키스탄
현충
8뉴스
##충돌
살림
아스
중요성이
독감
끔찍한
바라고
서한
똑같
시달리고
##운행
갈등의
속도는
##학위를
원장의
염증
##위기에
주식시장이
##파인
컸던
##료와
만들어낸
중수
기업들
##병과
동급
방송의
미술품
때라고
숨졌습니다
##일레븐
이용자는
##집은
##메리칸
영리
##장소
##민주주의
##에프
상근
성과에
시상식에서
준다는
시도한
조정하는
급변하는
##보게
제공한다고
역임한
##사전
답변이
누출
결의를
제9
전까지는
그러면서도
##은행을
저성장
전망되고
##ᆼ이
궁극적으로
확대되는
##항목
자금은
만들어졌다
백령
##참가
이득을
체포된
서민들의
건전성
감소해
##현장을
불명
내리면서
엘리트
의미있는
4학년
가던
디스
왔지만
월가
특파
운전면허
항공권
침체된
포항시
나간다는
허위로
##문화가
##가격을
금메달을
무기한
친구를
과제는
싸움을
##평가는
##가운데
부적합
##벽을
##공여
구상을
6시부터
줄어든다
##율로
하나대투
뜨겁다
망가
노동자들이
스타일의
유례
2012년까지
수퍼
##사항에
지금부터
##사고로
서강대
화순
따뜻하게
경력이
##설명회
뮤직비디오
실천하는
전거래일
의결권
어촌
신뢰할
가지가
구글이
방문하고
경우엔
##세미나
영어로
##페인
##평가가
독거노인
##국장이
환자들의
레바논
스마트폰과
긴장이
붉
##3년생
1986년
울릉도
##노스
소셜커머스
즉각적인
문이
프로그램과
금고
모티브
정기예금
연준의
구비
##균형발전
구체화
2가지
진작
##운동연합
했다면서
가구당
천막
치를
##중심의
농림수산식품
유령
계속할
논산
2023년
맡기
펜션
뱀
형이
거기서
비공개로
무색
연산
프라임
주민투표
조롱
##항으로
##범죄가중처벌
결의안
##집중
세대를
부연
특색
##공단의
회장에게
##4년생
수사관
##실련
지방선거를
##케이스
이목이
##6백
스무
사고와
모멘텀을
쫓아
불분
서스
넘겨진
연재
일주일에
##기술의
못했지만
추위가
안락
자세가
##그는
당선인이
금속노조
전이
동국제
에도
역할도
수동
외상
시술을
장내
조사됐습니다
기여하는
남짓
아저
##주들은
##이라이
위험요
거세게
##외국인
불은
유난
##바ᄁ
##동아일보
손흥
순이다
##동반
규제에
1400
좋겠다는
보였지만
거리에서
김기춘
남중국해
계속하고
근처에
금융기관의
##티넨
진출이
하이닉스는
탑재된
##마력
추워
코어
영상으로
모하
##홍콩
돌아올
걱정하는
결혼한
우병우
효율적
밸류에이션
이석기
##000만원의
가지로
##쟁이
##지성
공개한다
6가지
포함하면
##태영
시행될
없어도
어워드
영암
발견하고
와이브로
패션쇼
##가면서
에디션
##오카
부동산114
##강점
##숙박
감리
##표는
임기는
##영장을
행동으로
편견
평가도
##직에서
청각
반문했다
국무회의에서
디저트
부수
##서비스가
짧게
피살
부근에서
총선에
##행위로
키스
참석하지
쓰인
해결하고
##히기
남학생
노조원
강해
주민을
단속에
전선
오신
##제에서
##어촌
##성공
당에
100개
##비대
##교대
요구해
비판의
거론되는
##사건을
##적이지만
모색하는
##비시
동남권
하락하며
매수에
적기
전후해
##브레
콘텐츠가
수도권의
처벌이
예비후보는
영감을
확대된
벌어져
##외국어
보고했다
공급되는
번호를
##세스
운영과
##보스
보너스
금융사
확정할
낮아질
##밸
사랑에
표준화
자본주의
911
응답한
중이고
성북구
##2는
을지로
지도부의
코스피지수가
시선이
##ᆯ런트
미녀
언론과
모습이었다
의도적으로
인터넷으로
그라
##특집
##강은
비어
기상캐스터
분쟁이
발코
들어갔습니다
문정
국제공항
전한
어둠
기자들이
##용수
모습에
##밥을
관공
##톡스
##지은
##건전성
##조원의
거라는
##였
고금리
스마일
클렌
원내대표와
##지방법원
##청약
언덕
25년
오디
117
7배
제기되는
얇은
마실
유신
청구할
##상태가
유가증권시장에서
국경을
금일
야권의
맞서고
기관지
한반도에
거부했다
투입할
생산해
대표팀
김여
박철
노동부
먹지
확산되면서
싶다며
공기를
분양가가
지원된다
대해서만
드럼
불우
24분기
시상식
어우러져
가능합니다
시기와
배틀
토니
##태우
##셸
##김치
##부담을
총동원
화물차
패턴을
##비만
산림청
##공개시장
성탄
거치면서
강조하면서
드리고
오키나와
전통을
입찰에
##쑥
마사지
##조와
##유리
멈추지
##ᆸ다는
컨설턴
박시
국무회의
각광받고
##경제연구소
##등으로
기억을
중앙선거관리
그분
##극장에서
것이다라고
남자의
문체부
##더불어민주당
식품의
그제
##중동
김의
생산과
일러스트
시장에서도
필요성
##통신에
공개돼
등으로부터
회사와
삼는
돌아갔다
정체가
하려
권리가
개혁에
##원식
식이다
##서류
산부인과
수상자
수출의
자란
친인척
중장기적으로
눈과
명심
전해드
##틀랜드
모임인
강도가
어깨를
열병
##공원과
##무는
기흥
##혜원
물질이
앞다퉈
콜레스테
달여
장성택
밝혀져
##직이
경선에서
의견수
수도권에서
##교에
##먼트는
##중지
토지를
낭독
복수의
구하기
주체가
영서
##제인
부장검사는
플레이어
운행이
내한
조찬
할인을
저런
매콤
근무하고
주도의
##최초
옮겼다
발생했을
##채가
조이
##부담이
##토를
##교육이
개인별
##전시회
학부
##필름
인사와
계룡
당헌
관절염
##사태를
녹화
사이드
전립선
기록했던
귀여운
이코노미스트는
사소한
늘리기
##설치
필라
함께한
화성시
통계청이
저탄소
적절치
등에서도
##군청
백종
눈치를
##세대의
##잡을
리어
후원하는
재판매
놀까
이데
서명을
상류
김정은이
가상현실
80년대
자택에서
118
배기
##발굴
검토하는
정모
회복할
##천동
이순신
취미
인권을
분양한
##법인은
##생명과학
##8백
제12
선거운동을
##연락
예산으로
메르세데스벤츠
못한다고
##이라든지
재택
비판하고
##리스타
통합해
##기보다는
미만인
압구정
갯벌
자연을
당시에
형을
2002
가파르게
인상은
##위원장으로
모기
로드맵
변환
적십자
투자자는
회사인
임산부
415
부장판사
강점
구로구
부스를
갈등과
또래
애정
파일을
지난해말
먹어
망설
##경기장
이날도
국익
힘들다고
시청률
초선
고수들의
##펀드가
자유로
한명숙
전국을
변호인은
##하천
스트리트
조현아
면모를
2를
맞이해
##패턴
발맞춰
최문
뽑은
건교
##눅
춘추
박광
금융당국이
브레이크
##창의
메릴린
함부로
무대로
다변
고난
쥬
기회에
최초기준
여객기
세척
예탁
자체의
비위
##썬
##책임자
전체회의에서
모니터링을
##리터
주민들과
나섰지만
양사
##믹스
불이익
##해달라는
드레
임명된
관계자들과
낙폭이
반영될
##보좌관
방문이
구속영장이
시장에서의
원도
필요성에
나우뉴스
##지상
아파트에서
민주주의의
##족을
과제가
##700
##갑니다
##토크
나와야
급증하는
##밀러
##증의
백혈
기여를
성과급
임대차
시설과
##2000억원
부진으로
원숭
지정학적
소득주도
##연속
공기청정기
성완종
유통업체
수박
천정배
개조
##행진을
받아보세요
완료하고
간사인
살아야
흘려
##체제로
분실
송구
이사를
새벽에
살아온
정차
현실은
대지진
##측정
조성될
구조조정이
##헤럴드
무궁화
보호무역
실수를
무늬
사회적경제
##06
최상위
차는
##플러
##속기
위클리
눈높이에
부진이
은행에서
쓴다
수위가
추종
청도
##렉트로
질문이
##진다고
제한된
##소리가
제주특별자치
이별
공항에서
요구되는
논리를
##들지
리우
삼겹살
새우
일커
##건설의
하이트진
##더러
노원구
단체의
구하는
여행사
청구했다
제설
기회도
적다
직원에게
살처분
사용된다
블라디미르
엔지니어링
##하니까
##마르
##각각
국정원이
질의에
오디션
##캐피털
잃게
헨
유동성을
##기회를
성황
갈등은
싶었다
광복절
##얄
모르지만
구축했다
증시에서
매운
악수
5000여
내리겠습니다
밟고
이문
##버이
도의회
##돌고
기고
마당에
정론
미세먼지가
전국으로
쿠웨이트
왼
네티즌은
않았으며
물동
3선
금융권에
당신은
세계무역
강제징
##더는
존재한다
산다
점검해
내외로
쓰면
인지도를
예배
전역에서
추대
주주가
연방공개시장
##변조
자부심을
의욕
검토하겠다고
동굴
##체류
최고가
비건
시범사업
20세
분의
힘들다는
##뜩이나
국정원의
탄산
고구려
##지금
구분해
정은
없애는
노력은
삼성에
##ᅪᆫ
북측이
전해진다
화학물질
##나를
##싹
현명한
댐
누드
상업용
가족들과
타개
##업종은
마그
깔끔한
있나요
꼬리
이용자들의
적잖은
예년보다
짐을
##명박
맞붙
##무진
외부에서
국무조정
쏟아졌다
국가별
유물
시드니
성공했다고
피력했다
지형
##소니
교사의
오픈마켓
개발로
##력발전소
현재로선
월등
전시를
경쟁률
생생하게
뒤따라
녹색성장
발간한
##스도
역점을
결정된다
유지해야
기존에는
어린이를
복사
정규직으로
제19
건설과
형평성
근로기준
지질
결별
##워즈
매출도
연장을
웨어러블
613
한산
명절을
6월말
##철학
풀고
구자
작전을
이들과
소유하고
##프레이
북한인권
##하기까지
엇갈리고
계엄
세트를
서울지방경찰청
한국철도
검경
사이에서는
##7백
##6년생
##세라
효과에
의혹은
아버지를
동반자
역사는
대인
안도
그랑
가운데는
116
##효가
##납부
기둥
검은색
##하공
사이언스
우라늄
건강이
지지율을
##공원이
태도가
국면을
3000만
##제거
확산되는
##치스코
##드에서
최씨
##건과
살펴보
정도면
##파이어
##증권이
평년보다
9도
##법인이
##어업
주민은
##사장은
##발레
홀딩
조상
파악하기
##놀이를
어려움에
거짓말을
바다로
##지니아
제정을
##연동
생각이라고
구의
활동과
산업생산
판매한다고
핵미사일
인사로
보수를
헌법소
문서를
##ᆸ쓸
메탈
선제적
안방에서
##시세
넣는
오전까지
발언하고
피난
카다피
##학교에
인플레
지킨
##용의
##듯한
경청
양상이다
##림은
문성
유화
##담이
정보공개
산학연
##불교
생산라인
##단계로
대형주
허위사실
단계별
섰다
만드는데
사회관계
주민자치
관장
연구위원
아마추어
포화
##다툼
성도
일회성
평소에
가뜩이나
국민안전
##줄기
[...]
